{"0": "\n", "1": " ", "2": "(", "3": ")", "4": "+", "5": "/", "6": "0", "7": "1", "8": "2", "9": "7", "10": ":", "11": "=", "12": "H", "13": "[", "14": "]", "15": "`", "16": "f", "17": "x", "18": "{", "19": "|", "20": "}", "21": "·", "22": "”", "23": "…", "24": "┾", "25": "○", "26": "●", "27": "⻊", "28": "⿰", "29": "⿱", "30": "、", "31": "。", "32": "〈", "33": "〉", "34": "《", "35": "》", "36": "「", "37": "」", "38": "『", "39": "』", "40": "〖", "41": "〗", "42": "・", "43": "㐷", "44": "㑂", "45": "㑹", "46": "㑻", "47": "㒟", "48": "㒩", "49": "㒿", "50": "㓠", "51": "㓢", "52": "㓤", "53": "㔃", "54": "㔇", "55": "㔉", "56": "㔩", "57": "㔶", "58": "㕒", "59": "㕙", "60": "㕭", "61": "㕮", "62": "㖞", "63": "㖶", "64": "㗀", "65": "㗫", "66": "㗶", "67": "㗻", "68": "㘆", "69": "㘈", "70": "㘖", "71": "㘭", "72": "㙞", "73": "㙠", "74": "㙲", "75": "㙺", "76": "㛠", "77": "㛹", "78": "㜕", "79": "㜪", "80": "㜮", "81": "㝠", "82": "㝢", "83": "㝵", "84": "㞦", "85": "㟅", "86": "㟏", "87": "㟙", "88": "㟝", "89": "㟞", "90": "㟢", "91": "㟥", "92": "㟧", "93": "㟯", "94": "㟳", "95": "㟼", "96": "㟽", "97": "㠌", "98": "㠓", "99": "㠔", "100": "㠢", "101": "㠾", "102": "㡊", "103": "㡚", "104": "㡛", "105": "㡜", "106": "㡠", "107": "㢮", "108": "㢸", "109": "㤯", "110": "㥏", "111": "㥾", "112": "㦨", "113": "㦬", "114": "㦸", "115": "㧑", "116": "㧗", "117": "㧙", "118": "㧝", "119": "㧞", "120": "㧹", "121": "㧻", "122": "㨀", "123": "㨏", "124": "㨖", "125": "㨝", "126": "㨫", "127": "㨭", "128": "㨳", "129": "㩧", "130": "㩻", "131": "㪇", "132": "㪍", "133": "㫙", "134": "㬈", "135": "㬊", "136": "㬋", "137": "㬠", "138": "㬢", "139": "㭊", "140": "㭬", "141": "㭲", "142": "㮇", "143": "㮬", "144": "㮰", "145": "㯕", "146": "㯝", "147": "㰅", "148": "㰕", "149": "㰹", "150": "㱥", "151": "㲉", "152": "㲏", "153": "㲞", "154": "㲪", "155": "㲲", "156": "㳂", "157": "㳇", "158": "㳠", "159": "㳡", "160": "㴋", "161": "㴩", "162": "㴶", "163": "㵝", "164": "㵳", "165": "㵿", "166": "㶁", "167": "㶉", "168": "㶏", "169": "㶒", "170": "㶼", "171": "㶿", "172": "㸌", "173": "㸐", "174": "㸔", "175": "㹀", "176": "㹞", "177": "㹠", "178": "㹱", "179": "㹶", "180": "㺍", "181": "㺑", "182": "㺗", "183": "㺥", "184": "㺦", "185": "㻂", "186": "㻏", "187": "㻞", "188": "㻦", "189": "㼌", "190": "㼘", "191": "㼚", "192": "㽅", "193": "㾌", "194": "㾓", "195": "㾕", "196": "㾪", "197": "㿉", "198": "㿋", "199": "䀢", "200": "䀣", "201": "䀪", "202": "䁈", "203": "䁹", "204": "䁾", "205": "䂓", "206": "䂬", "207": "䃁", "208": "䃂", "209": "䃅", "210": "䃔", "211": "䃜", "212": "䃧", "213": "䃭", "214": "䃴", "215": "䃸", "216": "䃺", "217": "䄠", "218": "䅉", "219": "䅗", "220": "䅟", "221": "䆗", "222": "䇓", "223": "䇲", "224": "䇹", "225": "䇿", "226": "䈂", "227": "䈉", "228": "䈕", "229": "䈝", "230": "䈣", "231": "䈴", "232": "䈻", "233": "䉂", "234": "䉛", "235": "䉡", "236": "䉤", "237": "䉦", "238": "䋏", "239": "䋖", "240": "䌨", "241": "䌴", "242": "䌷", "243": "䌸", "244": "䌹", "245": "䍀", "246": "䍁", "247": "䍐", "248": "䍙", "249": "䍠", "250": "䍡", "251": "䍥", "252": "䍧", "253": "䎂", "254": "䎖", "255": "䎘", "256": "䎧", "257": "䎫", "258": "䎲", "259": "䎳", "260": "䏝", "261": "䏰", "262": "䏶", "263": "䐑", "264": "䐹", "265": "䑔", "266": "䑰", "267": "䑲", "268": "䑳", "269": "䑿", "270": "䒠", "271": "䒼", "272": "䓑", "273": "䓕", "274": "䓖", "275": "䓞", "276": "䓨", "277": "䔧", "278": "䔩", "279": "䔫", "280": "䔲", "281": "䔿", "282": "䕓", "283": "䕢", "284": "䕩", "285": "䕭", "286": "䕷", "287": "䕸", "288": "䕹", "289": "䖃", "290": "䖘", "291": "䖜", "292": "䖟", "293": "䖦", "294": "䖴", "295": "䗁", "296": "䗐", "297": "䗖", "298": "䗻", "299": "䘧", "300": "䘨", "301": "䙀", "302": "䙰", "303": "䚢", "304": "䚥", "305": "䚦", "306": "䛆", "307": "䛏", "308": "䛠", "309": "䜕", "310": "䜝", "311": "䜣", "312": "䜩", "313": "䜺", "314": "䝙", "315": "䝟", "316": "䠊", "317": "䠞", "318": "䡝", "319": "䡴", "320": "䡾", "321": "䢆", "322": "䢇", "323": "䢹", "324": "䣢", "325": "䤑", "326": "䤖", "327": "䤴", "328": "䥓", "329": "䥽", "330": "䦪", "331": "䦱", "332": "䧆", "333": "䨥", "334": "䨲", "335": "䨴", "336": "䩡", "337": "䩨", "338": "䩫", "339": "䩬", "340": "䪅", "341": "䪌", "342": "䪜", "343": "䪥", "344": "䪫", "345": "䪻", "346": "䫇", "347": "䫉", "348": "䫒", "349": "䫜", "350": "䫫", "351": "䬦", "352": "䬴", "353": "䬵", "354": "䯄", "355": "䯔", "356": "䯗", "357": "䯰", "358": "䯱", "359": "䰀", "360": "䰃", "361": "䰄", "362": "䰉", "363": "䰐", "364": "䰔", "365": "䰠", "366": "䱐", "367": "䱠", "368": "䱥", "369": "䱹", "370": "䲔", "371": "䲡", "372": "䲺", "373": "䳏", "374": "䳒", "375": "䳟", "376": "䴊", "377": "䴔", "378": "䴕", "379": "䴖", "380": "䴙", "381": "䴠", "382": "䴥", "383": "䴺", "384": "䵎", "385": "䵬", "386": "䶉", "387": "䶎", "388": "䶥", "389": "䶪", "390": "䶮", "391": "一", "392": "丁", "393": "七", "394": "万", "395": "丈", "396": "三", "397": "上", "398": "下", "399": "不", "400": "与", "401": "丏", "402": "丐", "403": "丑", "404": "专", "405": "且", "406": "丕", "407": "世", "408": "丗", "409": "丘", "410": "丙", "411": "业", "412": "丛", "413": "东", "414": "丝", "415": "丞", "416": "両", "417": "两", "418": "严", "419": "丧", "420": "个", "421": "丫", "422": "中", "423": "丰", "424": "丱", "425": "串", "426": "丳", "427": "临", "428": "丶", "429": "丷", "430": "丸", "431": "丹", "432": "为", "433": "主", "434": "丽", "435": "举", "436": "丿", "437": "乂", "438": "乃", "439": "久", "440": "么", "441": "义", "442": "之", "443": "乌", "444": "乍", "445": "乎", "446": "乏", "447": "乐", "448": "乔", "449": "乖", "450": "乘", "451": "乙", "452": "九", "453": "乞", "454": "也", "455": "习", "456": "乡", "457": "乣", "458": "书", "459": "买", "460": "乱", "461": "乳", "462": "乹", "463": "乾", "464": "亁", "465": "了", "466": "予", "467": "争", "468": "亊", "469": "事", "470": "二", "471": "亍", "472": "于", "473": "亏", "474": "云", "475": "互", "476": "五", "477": "井", "478": "亘", "479": "亚", "480": "些", "481": "亟", "482": "亠", "483": "亡", "484": "亢", "485": "交", "486": "亥", "487": "亦", "488": "产", "489": "亨", "490": "亩", "491": "享", "492": "京", "493": "亭", "494": "亮", "495": "亲", "496": "亳", "497": "亵", "498": "亶", "499": "亷", "500": "亸", "501": "亹", "502": "人", "503": "亾", "504": "亿", "505": "什", "506": "仁", "507": "仃", "508": "仄", "509": "仅", "510": "仆", "511": "仇", "512": "今", "513": "介", "514": "仍", "515": "从", "516": "仑", "517": "仓", "518": "仔", "519": "仕", "520": "他", "521": "仗", "522": "付", "523": "仙", "524": "仝", "525": "仞", "526": "仟", "527": "仡", "528": "代", "529": "令", "530": "以", "531": "仪", "532": "仭", "533": "仰", "534": "仲", "535": "仳", "536": "仵", "537": "件", "538": "价", "539": "任", "540": "份", "541": "仿", "542": "企", "543": "伃", "544": "伇", "545": "伈", "546": "伉", "547": "伊", "548": "伋", "549": "伍", "550": "伎", "551": "伏", "552": "伐", "553": "休", "554": "众", "555": "优", "556": "伙", "557": "会", "558": "伛", "559": "伞", "560": "伟", "561": "传", "562": "伣", "563": "伤", "564": "伥", "565": "伦", "566": "伧", "567": "伪", "568": "伫", "569": "伯", "570": "估", "571": "伴", "572": "伶", "573": "伷", "574": "伸", "575": "伺", "576": "伻", "577": "似", "578": "伽", "579": "伾", "580": "佀", "581": "佁", "582": "佃", "583": "佅", "584": "但", "585": "佉", "586": "佋", "587": "佌", "588": "位", "589": "低", "590": "住", "591": "佐", "592": "佑", "593": "佒", "594": "体", "595": "何", "596": "佖", "597": "佗", "598": "佘", "599": "余", "600": "佚", "601": "佛", "602": "作", "603": "佝", "604": "佞", "605": "佟", "606": "你", "607": "佣", "608": "佥", "609": "佩", "610": "佪", "611": "佯", "612": "佰", "613": "佳", "614": "佶", "615": "佺", "616": "佻", "617": "佼", "618": "佽", "619": "佾", "620": "使", "621": "侁", "622": "侂", "623": "侃", "624": "侄", "625": "侅", "626": "侈", "627": "例", "628": "侍", "629": "侏", "630": "侐", "631": "侑", "632": "侔", "633": "侗", "634": "侘", "635": "供", "636": "侜", "637": "依", "638": "侠", "639": "侣", "640": "侥", "641": "侦", "642": "侧", "643": "侨", "644": "侩", "645": "侪", "646": "侫", "647": "侬", "648": "侮", "649": "侯", "650": "侰", "651": "侲", "652": "侵", "653": "侹", "654": "侻", "655": "便", "656": "俀", "657": "促", "658": "俄", "659": "俉", "660": "俊", "661": "俋", "662": "俎", "663": "俐", "664": "俑", "665": "俗", "666": "俘", "667": "俙", "668": "俚", "669": "俛", "670": "俜", "671": "保", "672": "俞", "673": "俟", "674": "信", "675": "俣", "676": "俦", "677": "俨", "678": "俩", "679": "俪", "680": "俫", "681": "俭", "682": "修", "683": "俯", "684": "俱", "685": "俳", "686": "俶", "687": "俸", "688": "俺", "689": "俾", "690": "倂", "691": "倅", "692": "倍", "693": "倏", "694": "倐", "695": "倒", "696": "倓", "697": "倔", "698": "倕", "699": "倘", "700": "候", "701": "倚", "702": "倛", "703": "倜", "704": "倞", "705": "借", "706": "倡", "707": "倢", "708": "倣", "709": "倥", "710": "倦", "711": "倧", "712": "倨", "713": "倩", "714": "倪", "715": "倬", "716": "倭", "717": "倮", "718": "倰", "719": "债", "720": "值", "721": "倾", "722": "偁", "723": "偃", "724": "偄", "725": "偅", "726": "假", "727": "偈", "728": "偊", "729": "偎", "730": "偏", "731": "偓", "732": "偕", "733": "偘", "734": "做", "735": "停", "736": "健", "737": "偪", "738": "偫", "739": "偬", "740": "偭", "741": "偲", "742": "偶", "743": "偷", "744": "偻", "745": "偾", "746": "偿", "747": "傀", "748": "傁", "749": "傃", "750": "傅", "751": "傈", "752": "傋", "753": "傍", "754": "傒", "755": "傔", "756": "傚", "757": "傜", "758": "傝", "759": "傞", "760": "傥", "761": "傧", "762": "储", "763": "傩", "764": "傪", "765": "催", "766": "傱", "767": "傲", "768": "傺", "769": "僁", "770": "僄", "771": "僇", "772": "僊", "773": "働", "774": "僎", "775": "像", "776": "僒", "777": "僓", "778": "僖", "779": "僚", "780": "僛", "781": "僜", "782": "僝", "783": "僣", "784": "僦", "785": "僧", "786": "僩", "787": "僬", "788": "僭", "789": "僮", "790": "僰", "791": "僴", "792": "僵", "793": "僶", "794": "僸", "795": "僻", "796": "僽", "797": "僾", "798": "僿", "799": "儆", "800": "儇", "801": "儋", "802": "儌", "803": "儑", "804": "儒", "805": "儓", "806": "儗", "807": "儚", "808": "儛", "809": "儜", "810": "儡", "811": "儤", "812": "儦", "813": "儱", "814": "儳", "815": "儵", "816": "儹", "817": "儽", "818": "儿", "819": "兀", "820": "允", "821": "元", "822": "兄", "823": "充", "824": "兆", "825": "先", "826": "光", "827": "克", "828": "免", "829": "兎", "830": "兏", "831": "児", "832": "兑", "833": "兔", "834": "兕", "835": "兖", "836": "党", "837": "兜", "838": "兟", "839": "兠", "840": "兢", "841": "入", "842": "全", "843": "兪", "844": "八", "845": "公", "846": "六", "847": "兮", "848": "兰", "849": "共", "850": "关", "851": "兴", "852": "兵", "853": "其", "854": "具", "855": "典", "856": "兹", "857": "养", "858": "兼", "859": "兽", "860": "冀", "861": "冁", "862": "内", "863": "冇", "864": "冈", "865": "冉", "866": "冋", "867": "册", "868": "再", "869": "冏", "870": "冐", "871": "冒", "872": "冓", "873": "冔", "874": "冕", "875": "冗", "876": "写", "877": "军", "878": "农", "879": "冞", "880": "冠", "881": "冡", "882": "冢", "883": "冤", "884": "冥", "885": "冦", "886": "冨", "887": "冩", "888": "冫", "889": "冬", "890": "冯", "891": "冰", "892": "冱", "893": "冲", "894": "决", "895": "况", "896": "冶", "897": "冷", "898": "冺", "899": "冻", "900": "冼", "901": "冽", "902": "净", "903": "凂", "904": "凄", "905": "准", "906": "凉", "907": "凊", "908": "凋", "909": "凌", "910": "凎", "911": "减", "912": "凑", "913": "凓", "914": "凖", "915": "凗", "916": "凘", "917": "凛", "918": "凝", "919": "凟", "920": "几", "921": "凡", "922": "凢", "923": "凤", "924": "凫", "925": "凭", "926": "凯", "927": "凰", "928": "凳", "929": "凴", "930": "凶", "931": "凸", "932": "凹", "933": "出", "934": "击", "935": "函", "936": "凾", "937": "凿", "938": "刀", "939": "刁", "940": "刂", "941": "刃", "942": "刄", "943": "刅", "944": "分", "945": "切", "946": "刈", "947": "刊", "948": "刋", "949": "刌", "950": "刍", "951": "刎", "952": "刑", "953": "划", "954": "刓", "955": "刔", "956": "刖", "957": "列", "958": "刘", "959": "则", "960": "刚", "961": "创", "962": "刜", "963": "初", "964": "删", "965": "判", "966": "刦", "967": "刧", "968": "利", "969": "别", "970": "刬", "971": "刭", "972": "刮", "973": "到", "974": "刱", "975": "刲", "976": "刳", "977": "刵", "978": "制", "979": "刷", "980": "券", "981": "刹", "982": "刺", "983": "刻", "984": "刼", "985": "刾", "986": "刿", "987": "剀", "988": "剁", "989": "剂", "990": "剃", "991": "剉", "992": "削", "993": "剌", "994": "前", "995": "剏", "996": "剐", "997": "剑", "998": "剔", "999": "剕", "1000": "剖", "1001": "剚", "1002": "剜", "1003": "剞", "1004": "剟", "1005": "剠", "1006": "剡", "1007": "剣", "1008": "剥", "1009": "剧", "1010": "剨", "1011": "剩", "1012": "剪", "1013": "剭", "1014": "副", "1015": "剰", "1016": "割", "1017": "剳", "1018": "剶", "1019": "剸", "1020": "剺", "1021": "剽", "1022": "剿", "1023": "劀", "1024": "劂", "1025": "劄", "1026": "劈", "1027": "劋", "1028": "劎", "1029": "劒", "1030": "劓", "1031": "劔", "1032": "劖", "1033": "劘", "1034": "劙", "1035": "力", "1036": "劝", "1037": "办", "1038": "功", "1039": "加", "1040": "务", "1041": "劢", "1042": "劣", "1043": "动", "1044": "助", "1045": "努", "1046": "劫", "1047": "劬", "1048": "劭", "1049": "励", "1050": "劲", "1051": "劳", "1052": "劵", "1053": "効", "1054": "劻", "1055": "劼", "1056": "劾", "1057": "势", "1058": "勃", "1059": "勅", "1060": "勇", "1061": "勉", "1062": "勋", "1063": "勌", "1064": "勍", "1065": "勒", "1066": "勔", "1067": "勖", "1068": "勗", "1069": "勘", "1070": "勚", "1071": "募", "1072": "勠", "1073": "勤", "1074": "勦", "1075": "勮", "1076": "勰", "1077": "勲", "1078": "勷", "1079": "勺", "1080": "勾", "1081": "勿", "1082": "匀", "1083": "匄", "1084": "包", "1085": "匆", "1086": "匈", "1087": "匉", "1088": "匊", "1089": "匋", "1090": "匌", "1091": "匍", "1092": "匏", "1093": "匐", "1094": "匕", "1095": "化", "1096": "北", "1097": "匙", "1098": "匜", "1099": "匝", "1100": "匠", "1101": "匡", "1102": "匣", "1103": "匦", "1104": "匪", "1105": "匮", "1106": "匰", "1107": "匲", "1108": "匳", "1109": "匴", "1110": "匵", "1111": "匶", "1112": "匹", "1113": "区", "1114": "医", "1115": "匼", "1116": "匽", "1117": "匾", "1118": "匿", "1119": "十", "1120": "卂", "1121": "千", "1122": "卄", "1123": "卅", "1124": "升", "1125": "午", "1126": "卉", "1127": "半", "1128": "卍", "1129": "华", "1130": "协", "1131": "卐", "1132": "卑", "1133": "卒", "1134": "卓", "1135": "单", "1136": "卖", "1137": "南", "1138": "博", "1139": "卜", "1140": "卞", "1141": "占", "1142": "卢", "1143": "卣", "1144": "卤", "1145": "卦", "1146": "卧", "1147": "卨", "1148": "卫", "1149": "卬", "1150": "卭", "1151": "卮", "1152": "卯", "1153": "印", "1154": "危", "1155": "卲", "1156": "即", "1157": "却", "1158": "卵", "1159": "卷", "1160": "卸", "1161": "卺", "1162": "卼", "1163": "卿", "1164": "厂", "1165": "厄", "1166": "厅", "1167": "历", "1168": "厉", "1169": "压", "1170": "厌", "1171": "厍", "1172": "厐", "1173": "厓", "1174": "厔", "1175": "厕", "1176": "厖", "1177": "厘", "1178": "厚", "1179": "厜", "1180": "厝", "1181": "厞", "1182": "原", "1183": "厢", "1184": "厣", "1185": "厥", "1186": "厦", "1187": "厨", "1188": "厩", "1189": "厪", "1190": "厫", "1191": "厮", "1192": "去", "1193": "县", "1194": "参", "1195": "叅", "1196": "叆", "1197": "叇", "1198": "又", "1199": "叉", "1200": "及", "1201": "友", "1202": "双", "1203": "反", "1204": "収", "1205": "发", "1206": "叔", "1207": "取", "1208": "受", "1209": "变", "1210": "叙", "1211": "叚", "1212": "叛", "1213": "叟", "1214": "叠", "1215": "叡", "1216": "口", "1217": "古", "1218": "句", "1219": "另", "1220": "叨", "1221": "叩", "1222": "只", "1223": "叫", "1224": "召", "1225": "叮", "1226": "可", "1227": "台", "1228": "叱", "1229": "史", "1230": "右", "1231": "叵", "1232": "叶", "1233": "号", "1234": "司", "1235": "叹", "1236": "叽", "1237": "吁", "1238": "吃", "1239": "各", "1240": "合", "1241": "吉", "1242": "吊", "1243": "同", "1244": "名", "1245": "后", "1246": "吏", "1247": "吐", "1248": "向", "1249": "吓", "1250": "吕", "1251": "吗", "1252": "吚", "1253": "君", "1254": "吝", "1255": "吞", "1256": "吟", "1257": "吠", "1258": "否", "1259": "吧", "1260": "吪", "1261": "含", "1262": "听", "1263": "吭", "1264": "吮", "1265": "启", "1266": "吰", "1267": "吴", "1268": "吵", "1269": "吷", "1270": "吸", "1271": "吹", "1272": "吺", "1273": "吻", "1274": "吼", "1275": "吽", "1276": "吾", "1277": "吿", "1278": "呀", "1279": "呃", "1280": "呅", "1281": "呆", "1282": "呈", "1283": "告", "1284": "呌", "1285": "呐", "1286": "呑", "1287": "呓", "1288": "呕", "1289": "呖", "1290": "呗", "1291": "员", "1292": "呙", "1293": "呜", "1294": "呝", "1295": "呞", "1296": "呢", "1297": "呤", "1298": "呦", "1299": "周", "1300": "呪", "1301": "呫", "1302": "呰", "1303": "呱", "1304": "味", "1305": "呴", "1306": "呵", "1307": "呶", "1308": "呷", "1309": "呺", "1310": "呻", "1311": "呼", "1312": "命", "1313": "呾", "1314": "呿", "1315": "咀", "1316": "咂", "1317": "咄", "1318": "咆", "1319": "咈", "1320": "咋", "1321": "和", "1322": "咍", "1323": "咎", "1324": "咏", "1325": "咐", "1326": "咒", "1327": "咔", "1328": "咙", "1329": "咛", "1330": "咜", "1331": "咡", "1332": "咢", "1333": "咤", "1334": "咥", "1335": "咦", "1336": "咨", "1337": "咩", "1338": "咫", "1339": "咬", "1340": "咮", "1341": "咯", "1342": "咱", "1343": "咲", "1344": "咳", "1345": "咷", "1346": "咸", "1347": "咺", "1348": "咻", "1349": "咽", "1350": "咿", "1351": "哀", "1352": "品", "1353": "哂", "1354": "哄", "1355": "哆", "1356": "哇", "1357": "哈", "1358": "哉", "1359": "哌", "1360": "响", "1361": "哑", "1362": "哓", "1363": "哔", "1364": "哕", "1365": "哗", "1366": "哙", "1367": "哜", "1368": "哢", "1369": "哤", "1370": "哥", "1371": "哦", "1372": "哨", "1373": "哩", "1374": "哪", "1375": "哭", "1376": "哮", "1377": "哲", "1378": "哳", "1379": "哶", "1380": "哺", "1381": "哻", "1382": "哽", "1383": "哿", "1384": "唁", "1385": "唅", "1386": "唆", "1387": "唇", "1388": "唈", "1389": "唎", "1390": "唏", "1391": "唐", "1392": "唔", "1393": "唝", "1394": "唠", "1395": "唤", "1396": "唧", "1397": "唪", "1398": "唫", "1399": "售", "1400": "唯", "1401": "唱", "1402": "唳", "1403": "唵", "1404": "唶", "1405": "唼", "1406": "唽", "1407": "唾", "1408": "啀", "1409": "啁", "1410": "啄", "1411": "啅", "1412": "商", "1413": "啐", "1414": "啑", "1415": "啖", "1416": "啗", "1417": "啙", "1418": "啜", "1419": "啣", "1420": "啧", "1421": "啨", "1422": "啬", "1423": "啭", "1424": "啮", "1425": "啰", "1426": "啴", "1427": "啸", "1428": "啻", "1429": "啼", "1430": "啽", "1431": "啾", "1432": "喁", "1433": "喂", "1434": "喃", "1435": "善", "1436": "喆", "1437": "喇", "1438": "喈", "1439": "喉", "1440": "喊", "1441": "喋", "1442": "喌", "1443": "喍", "1444": "喏", "1445": "喑", "1446": "喓", "1447": "喔", "1448": "喘", "1449": "喙", "1450": "喛", "1451": "喜", "1452": "喝", "1453": "喟", "1454": "喢", "1455": "喣", "1456": "喤", "1457": "喦", "1458": "喧", "1459": "喨", "1460": "喩", "1461": "喭", "1462": "喷", "1463": "喻", "1464": "喽", "1465": "喾", "1466": "嗁", "1467": "嗃", "1468": "嗄", "1469": "嗅", "1470": "嗈", "1471": "嗉", "1472": "嗋", "1473": "嗌", "1474": "嗍", "1475": "嗏", "1476": "嗑", "1477": "嗒", "1478": "嗓", "1479": "嗔", "1480": "嗗", "1481": "嗛", "1482": "嗜", "1483": "嗝", "1484": "嗟", "1485": "嗢", "1486": "嗣", "1487": "嗤", "1488": "嗥", "1489": "嗫", "1490": "嗷", "1491": "嗸", "1492": "嗺", "1493": "嗽", "1494": "嗾", "1495": "嗿", "1496": "嘀", "1497": "嘂", "1498": "嘅", "1499": "嘇", "1500": "嘈", "1501": "嘉", "1502": "嘎", "1503": "嘏", "1504": "嘐", "1505": "嘑", "1506": "嘒", "1507": "嘘", "1508": "嘤", "1509": "嘨", "1510": "嘬", "1511": "嘱", "1512": "嘲", "1513": "嘴", "1514": "嘶", "1515": "嘷", "1516": "嘹", "1517": "嘻", "1518": "嘼", "1519": "嘿", "1520": "噀", "1521": "噂", "1522": "噆", "1523": "噇", "1524": "噉", "1525": "噌", "1526": "噍", "1527": "噎", "1528": "噏", "1529": "噐", "1530": "噜", "1531": "噢", "1532": "噣", "1533": "噤", "1534": "器", "1535": "噩", "1536": "噪", "1537": "噫", "1538": "噬", "1539": "噭", "1540": "噰", "1541": "噱", "1542": "嚃", "1543": "嚄", "1544": "嚅", "1545": "嚆", "1546": "嚎", "1547": "嚏", "1548": "嚗", "1549": "嚘", "1550": "嚚", "1551": "嚞", "1552": "嚢", "1553": "嚣", "1554": "嚬", "1555": "嚭", "1556": "嚱", "1557": "嚵", "1558": "嚻", "1559": "嚼", "1560": "嚾", "1561": "囊", "1562": "囋", "1563": "囏", "1564": "囐", "1565": "囓", "1566": "囗", "1567": "囘", "1568": "囚", "1569": "四", "1570": "囝", "1571": "回", "1572": "因", "1573": "团", "1574": "囤", "1575": "囦", "1576": "园", "1577": "囮", "1578": "困", "1579": "围", "1580": "囷", "1581": "囹", "1582": "固", "1583": "国", "1584": "图", "1585": "囿", "1586": "圀", "1587": "圁", "1588": "圂", "1589": "圃", "1590": "圄", "1591": "圆", "1592": "圈", "1593": "圉", "1594": "圊", "1595": "圌", "1596": "圎", "1597": "圏", "1598": "圑", "1599": "圗", "1600": "圛", "1601": "圜", "1602": "圝", "1603": "土", "1604": "圠", "1605": "圣", "1606": "在", "1607": "圩", "1608": "圪", "1609": "圬", "1610": "圭", "1611": "圮", "1612": "圯", "1613": "地", "1614": "圳", "1615": "圴", "1616": "圹", "1617": "场", "1618": "圻", "1619": "圼", "1620": "圾", "1621": "圿", "1622": "址", "1623": "坁", "1624": "坂", "1625": "坃", "1626": "均", "1627": "坊", "1628": "坋", "1629": "坌", "1630": "坍", "1631": "坎", "1632": "坏", "1633": "坐", "1634": "坑", "1635": "块", "1636": "坚", "1637": "坛", "1638": "坝", "1639": "坞", "1640": "坟", "1641": "坠", "1642": "坡", "1643": "坤", "1644": "坦", "1645": "坨", "1646": "坩", "1647": "坪", "1648": "坫", "1649": "坯", "1650": "坰", "1651": "坱", "1652": "坳", "1653": "坵", "1654": "坷", "1655": "坻", "1656": "坼", "1657": "垂", "1658": "垄", "1659": "垅", "1660": "垆", "1661": "型", "1662": "垌", "1663": "垍", "1664": "垒", "1665": "垓", "1666": "垕", "1667": "垛", "1668": "垜", "1669": "垝", "1670": "垞", "1671": "垠", "1672": "垡", "1673": "垢", "1674": "垣", "1675": "垤", "1676": "垦", "1677": "垩", "1678": "垫", "1679": "垭", "1680": "垲", "1681": "垷", "1682": "垸", "1683": "埀", "1684": "埂", "1685": "埃", "1686": "埅", "1687": "埆", "1688": "埇", "1689": "埈", "1690": "埊", "1691": "埋", "1692": "城", "1693": "埏", "1694": "埒", "1695": "埓", "1696": "埔", "1697": "埘", "1698": "埙", "1699": "埛", "1700": "埜", "1701": "埞", "1702": "域", "1703": "埠", "1704": "埤", "1705": "埧", "1706": "埭", "1707": "埲", "1708": "埳", "1709": "埴", "1710": "埵", "1711": "埶", "1712": "埸", "1713": "培", "1714": "基", "1715": "埻", "1716": "埼", "1717": "埽", "1718": "埿", "1719": "堀", "1720": "堁", "1721": "堂", "1722": "堄", "1723": "堆", "1724": "堇", "1725": "堈", "1726": "堋", "1727": "堌", "1728": "堑", "1729": "堕", "1730": "堘", "1731": "堙", "1732": "堛", "1733": "堞", "1734": "堠", "1735": "堡", "1736": "堤", "1737": "堦", "1738": "堧", "1739": "堨", "1740": "堪", "1741": "堭", "1742": "堮", "1743": "堰", "1744": "堲", "1745": "堵", "1746": "堶", "1747": "堽", "1748": "塈", "1749": "塉", "1750": "塌", "1751": "塍", "1752": "塑", "1753": "塔", "1754": "塕", "1755": "塘", "1756": "塛", "1757": "塜", "1758": "塞", "1759": "塠", "1760": "塩", "1761": "填", "1762": "塯", "1763": "塲", "1764": "塶", "1765": "塼", "1766": "塾", "1767": "墀", "1768": "墁", "1769": "境", "1770": "墄", "1771": "墅", "1772": "墉", "1773": "墋", "1774": "墍", "1775": "墐", "1776": "墓", "1777": "墖", "1778": "増", "1779": "墙", "1780": "墝", "1781": "增", "1782": "墟", "1783": "墢", "1784": "墥", "1785": "墦", "1786": "墨", "1787": "墩", "1788": "墪", "1789": "墬", "1790": "墯", "1791": "墺", "1792": "墿", "1793": "壀", "1794": "壁", "1795": "壃", "1796": "壄", "1797": "壅", "1798": "壊", "1799": "壌", "1800": "壍", "1801": "壑", "1802": "壒", "1803": "壕", "1804": "壖", "1805": "壝", "1806": "壤", "1807": "壥", "1808": "士", "1809": "壬", "1810": "壮", "1811": "声", "1812": "壳", "1813": "壴", "1814": "壶", "1815": "壸", "1816": "壹", "1817": "壻", "1818": "处", "1819": "夆", "1820": "备", "1821": "夊", "1822": "复", "1823": "夏", "1824": "夐", "1825": "夑", "1826": "夔", "1827": "夕", "1828": "外", "1829": "夗", "1830": "夘", "1831": "夙", "1832": "多", "1833": "夜", "1834": "夣", "1835": "夤", "1836": "大", "1837": "天", "1838": "太", "1839": "夫", "1840": "夬", "1841": "夭", "1842": "央", "1843": "夯", "1844": "失", "1845": "夲", "1846": "头", "1847": "夷", "1848": "夸", "1849": "夹", "1850": "夺", "1851": "奁", "1852": "奂", "1853": "奄", "1854": "奅", "1855": "奇", "1856": "奈", "1857": "奉", "1858": "奋", "1859": "奎", "1860": "奏", "1861": "契", "1862": "奓", "1863": "奔", "1864": "奕", "1865": "奖", "1866": "套", "1867": "奘", "1868": "奚", "1869": "奠", "1870": "奡", "1871": "奢", "1872": "奣", "1873": "奥", "1874": "奨", "1875": "奫", "1876": "奭", "1877": "奯", "1878": "女", "1879": "奴", "1880": "奶", "1881": "奸", "1882": "好", "1883": "妁", "1884": "如", "1885": "妃", "1886": "妄", "1887": "妆", "1888": "妇", "1889": "妉", "1890": "妊", "1891": "妍", "1892": "妒", "1893": "妓", "1894": "妖", "1895": "妙", "1896": "妠", "1897": "妣", "1898": "妤", "1899": "妥", "1900": "妨", "1901": "妩", "1902": "妪", "1903": "妫", "1904": "妬", "1905": "妮", "1906": "妯", "1907": "妲", "1908": "妳", "1909": "妷", "1910": "妸", "1911": "妹", "1912": "妺", "1913": "妻", "1914": "妾", "1915": "姀", "1916": "姁", "1917": "姆", "1918": "姈", "1919": "姉", "1920": "姊", "1921": "始", "1922": "姑", "1923": "姒", "1924": "姓", "1925": "委", "1926": "姗", "1927": "姘", "1928": "姙", "1929": "姚", "1930": "姜", "1931": "姝", "1932": "姞", "1933": "姡", "1934": "姢", "1935": "姣", "1936": "姤", "1937": "姥", "1938": "姧", "1939": "姨", "1940": "姪", "1941": "姫", "1942": "姬", "1943": "姮", "1944": "姱", "1945": "姸", "1946": "姹", "1947": "姻", "1948": "姿", "1949": "娀", "1950": "威", "1951": "娃", "1952": "娄", "1953": "娅", "1954": "娆", "1955": "娇", "1956": "娈", "1957": "娉", "1958": "娌", "1959": "娑", "1960": "娒", "1961": "娓", "1962": "娖", "1963": "娗", "1964": "娘", "1965": "娜", "1966": "娞", "1967": "娟", "1968": "娠", "1969": "娣", "1970": "娥", "1971": "娩", "1972": "娬", "1973": "娭", "1974": "娯", "1975": "娱", "1976": "娲", "1977": "娴", "1978": "娵", "1979": "娶", "1980": "娼", "1981": "婀", "1982": "婆", "1983": "婉", "1984": "婑", "1985": "婕", "1986": "婗", "1987": "婘", "1988": "婚", "1989": "婞", "1990": "婠", "1991": "婢", "1992": "婣", "1993": "婥", "1994": "婪", "1995": "婬", "1996": "婳", "1997": "婴", "1998": "婵", "1999": "婷", "2000": "婺", "2001": "婿", "2002": "媌", "2003": "媍", "2004": "媒", "2005": "媕", "2006": "媙", "2007": "媚", "2008": "媛", "2009": "媞", "2010": "媟", "2011": "媠", "2012": "媢", "2013": "媪", "2014": "媭", "2015": "媮", "2016": "媲", "2017": "媵", "2018": "媸", "2019": "媺", "2020": "媻", "2021": "媾", "2022": "媿", "2023": "嫁", "2024": "嫂", "2025": "嫄", "2026": "嫇", "2027": "嫈", "2028": "嫉", "2029": "嫌", "2030": "嫓", "2031": "嫔", "2032": "嫕", "2033": "嫖", "2034": "嫚", "2035": "嫛", "2036": "嫜", "2037": "嫠", "2038": "嫡", "2039": "嫣", "2040": "嫦", "2041": "嫧", "2042": "嫩", "2043": "嫪", "2044": "嫫", "2045": "嫭", "2046": "嫮", "2047": "嫰", "2048": "嫱", "2049": "嫶", "2050": "嫷", "2051": "嬄", "2052": "嬉", "2053": "嬖", "2054": "嬗", "2055": "嬛", "2056": "嬝", "2057": "嬭", "2058": "嬲", "2059": "嬴", "2060": "嬺", "2061": "嬾", "2062": "嬿", "2063": "孀", "2064": "孅", "2065": "孏", "2066": "子", "2067": "孑", "2068": "孔", "2069": "孕", "2070": "字", "2071": "存", "2072": "孙", "2073": "孚", "2074": "孛", "2075": "孜", "2076": "孝", "2077": "孟", "2078": "季", "2079": "孤", "2080": "孥", "2081": "学", "2082": "孩", "2083": "孪", "2084": "孰", "2085": "孱", "2086": "孳", "2087": "孺", "2088": "孽", "2089": "宁", "2090": "宂", "2091": "它", "2092": "宄", "2093": "宅", "2094": "宇", "2095": "守", "2096": "安", "2097": "宋", "2098": "完", "2099": "宎", "2100": "宏", "2101": "宓", "2102": "宕", "2103": "宗", "2104": "官", "2105": "宙", "2106": "定", "2107": "宛", "2108": "宜", "2109": "宝", "2110": "实", "2111": "宠", "2112": "审", "2113": "客", "2114": "宣", "2115": "室", "2116": "宥", "2117": "宦", "2118": "宪", "2119": "宫", "2120": "宬", "2121": "宰", "2122": "害", "2123": "宴", "2124": "宵", "2125": "家", "2126": "宷", "2127": "宸", "2128": "容", "2129": "宻", "2130": "宼", "2131": "宽", "2132": "宾", "2133": "宿", "2134": "寁", "2135": "寂", "2136": "寃", "2137": "寄", "2138": "寅", "2139": "密", "2140": "寇", "2141": "寉", "2142": "富", "2143": "寐", "2144": "寑", "2145": "寒", "2146": "寓", "2147": "寔", "2148": "寕", "2149": "寖", "2150": "寘", "2151": "寛", "2152": "寜", "2153": "寝", "2154": "寞", "2155": "察", "2156": "寡", "2157": "寤", "2158": "寥", "2159": "寨", "2160": "寮", "2161": "寰", "2162": "寱", "2163": "寳", "2164": "寸", "2165": "对", "2166": "寺", "2167": "寻", "2168": "导", "2169": "寿", "2170": "尀", "2171": "封", "2172": "専", "2173": "尃", "2174": "射", "2175": "尅", "2176": "将", "2177": "尉", "2178": "尊", "2179": "小", "2180": "少", "2181": "尔", "2182": "尖", "2183": "尘", "2184": "尙", "2185": "尚", "2186": "尝", "2187": "尟", "2188": "尠", "2189": "尢", "2190": "尤", "2191": "尧", "2192": "尨", "2193": "尩", "2194": "尪", "2195": "尫", "2196": "尭", "2197": "尯", "2198": "尰", "2199": "就", "2200": "尵", "2201": "尸", "2202": "尹", "2203": "尺", "2204": "尻", "2205": "尼", "2206": "尽", "2207": "尾", "2208": "尿", "2209": "局", "2210": "屁", "2211": "层", "2212": "居", "2213": "屈", "2214": "屉", "2215": "届", "2216": "屋", "2217": "屎", "2218": "屏", "2219": "屐", "2220": "屑", "2221": "展", "2222": "屙", "2223": "屝", "2224": "属", "2225": "屠", "2226": "屡", "2227": "屣", "2228": "履", "2229": "屦", "2230": "屧", "2231": "屫", "2232": "屭", "2233": "屯", "2234": "山", "2235": "屴", "2236": "屷", "2237": "屹", "2238": "屺", "2239": "屼", "2240": "屿", "2241": "岀", "2242": "岁", "2243": "岂", "2244": "岅", "2245": "岇", "2246": "岈", "2247": "岊", "2248": "岋", "2249": "岌", "2250": "岍", "2251": "岏", "2252": "岐", "2253": "岑", "2254": "岔", "2255": "岖", "2256": "岗", "2257": "岘", "2258": "岚", "2259": "岛", "2260": "岝", "2261": "岞", "2262": "岢", "2263": "岣", "2264": "岥", "2265": "岧", "2266": "岨", "2267": "岩", "2268": "岪", "2269": "岫", "2270": "岭", "2271": "岮", "2272": "岯", "2273": "岰", "2274": "岱", "2275": "岳", "2276": "岵", "2277": "岷", "2278": "岸", "2279": "岹", "2280": "岿", "2281": "峁", "2282": "峃", "2283": "峄", "2284": "峉", "2285": "峋", "2286": "峍", "2287": "峎", "2288": "峐", "2289": "峑", "2290": "峒", "2291": "峘", "2292": "峙", "2293": "峛", "2294": "峝", "2295": "峞", "2296": "峡", "2297": "峣", "2298": "峤", "2299": "峥", "2300": "峦", "2301": "峨", "2302": "峩", "2303": "峪", "2304": "峬", "2305": "峭", "2306": "峮", "2307": "峰", "2308": "峵", "2309": "峸", "2310": "峻", "2311": "峿", "2312": "崃", "2313": "崄", "2314": "崆", "2315": "崇", "2316": "崈", "2317": "崎", "2318": "崏", "2319": "崐", "2320": "崒", "2321": "崔", "2322": "崕", "2323": "崖", "2324": "崘", "2325": "崚", "2326": "崛", "2327": "崟", "2328": "崤", "2329": "崦", "2330": "崧", "2331": "崨", "2332": "崩", "2333": "崪", "2334": "崭", "2335": "崯", "2336": "崱", "2337": "崴", "2338": "崷", "2339": "崺", "2340": "崽", "2341": "崿", "2342": "嵁", "2343": "嵂", "2344": "嵃", "2345": "嵇", "2346": "嵊", "2347": "嵋", "2348": "嵌", "2349": "嵎", "2350": "嵑", "2351": "嵒", "2352": "嵓", "2353": "嵔", "2354": "嵕", "2355": "嵘", "2356": "嵚", "2357": "嵝", "2358": "嵠", "2359": "嵡", "2360": "嵢", "2361": "嵥", "2362": "嵦", "2363": "嵨", "2364": "嵩", "2365": "嵪", "2366": "嵫", "2367": "嵬", "2368": "嵯", "2369": "嵰", "2370": "嵱", "2371": "嵲", "2372": "嵳", "2373": "嵵", "2374": "嵷", "2375": "嵸", "2376": "嵺", "2377": "嶀", "2378": "嶂", "2379": "嶃", "2380": "嶅", "2381": "嶆", "2382": "嶉", "2383": "嶊", "2384": "嶒", "2385": "嶓", "2386": "嶕", "2387": "嶙", "2388": "嶚", "2389": "嶛", "2390": "嶝", "2391": "嶞", "2392": "嶣", "2393": "嶤", "2394": "嶪", "2395": "嶫", "2396": "嶬", "2397": "嶭", "2398": "嶰", "2399": "嶱", "2400": "嶲", "2401": "嶴", "2402": "嶷", "2403": "嶻", "2404": "巀", "2405": "巂", "2406": "巃", "2407": "巄", "2408": "巅", "2409": "巇", "2410": "巉", "2411": "巌", "2412": "巍", "2413": "巑", "2414": "巓", "2415": "川", "2416": "州", "2417": "巡", "2418": "巢", "2419": "工", "2420": "左", "2421": "巧", "2422": "巨", "2423": "巩", "2424": "巫", "2425": "差", "2426": "己", "2427": "已", "2428": "巳", "2429": "巴", "2430": "巵", "2431": "巷", "2432": "巽", "2433": "巾", "2434": "巿", "2435": "帀", "2436": "币", "2437": "市", "2438": "布", "2439": "帅", "2440": "帆", "2441": "师", "2442": "帉", "2443": "帊", "2444": "希", "2445": "帏", "2446": "帐", "2447": "帑", "2448": "帓", "2449": "帔", "2450": "帕", "2451": "帖", "2452": "帘", "2453": "帙", "2454": "帚", "2455": "帛", "2456": "帜", "2457": "帝", "2458": "帟", "2459": "帡", "2460": "帢", "2461": "帣", "2462": "帤", "2463": "带", "2464": "帧", "2465": "帨", "2466": "帬", "2467": "席", "2468": "帯", "2469": "帱", "2470": "帷", "2471": "常", "2472": "帻", "2473": "帼", "2474": "帽", "2475": "幂", "2476": "幄", "2477": "幅", "2478": "幈", "2479": "幌", "2480": "幍", "2481": "幏", "2482": "幐", "2483": "幔", "2484": "幕", "2485": "幖", "2486": "幙", "2487": "幛", "2488": "幞", "2489": "幡", "2490": "幢", "2491": "幨", "2492": "幪", "2493": "幮", "2494": "幰", "2495": "干", "2496": "平", "2497": "年", "2498": "幵", "2499": "并", "2500": "幷", "2501": "幸", "2502": "幺", "2503": "幻", "2504": "幼", "2505": "幽", "2506": "广", "2507": "庀", "2508": "庄", "2509": "庆", "2510": "庇", "2511": "床", "2512": "庋", "2513": "庌", "2514": "序", "2515": "庐", "2516": "庑", "2517": "库", "2518": "应", "2519": "底", "2520": "庖", "2521": "店", "2522": "庘", "2523": "庙", "2524": "庚", "2525": "府", "2526": "庞", "2527": "废", "2528": "庠", "2529": "庤", "2530": "庥", "2531": "度", "2532": "座", "2533": "庨", "2534": "庬", "2535": "庭", "2536": "庮", "2537": "庳", "2538": "庵", "2539": "庶", "2540": "康", "2541": "庸", "2542": "庻", "2543": "庾", "2544": "廇", "2545": "廉", "2546": "廊", "2547": "廋", "2548": "廌", "2549": "廏", "2550": "廐", "2551": "廑", "2552": "廓", "2553": "廔", "2554": "廖", "2555": "廙", "2556": "廛", "2557": "廜", "2558": "廤", "2559": "廥", "2560": "廨", "2561": "廪", "2562": "廰", "2563": "廱", "2564": "廵", "2565": "延", "2566": "廷", "2567": "廸", "2568": "廹", "2569": "建", "2570": "廻", "2571": "廼", "2572": "廽", "2573": "廾", "2574": "廿", "2575": "开", "2576": "弁", "2577": "异", "2578": "弃", "2579": "弄", "2580": "弅", "2581": "弆", "2582": "弇", "2583": "弈", "2584": "弊", "2585": "弋", "2586": "弌", "2587": "式", "2588": "弑", "2589": "弓", "2590": "引", "2591": "弗", "2592": "弘", "2593": "弛", "2594": "弜", "2595": "弝", "2596": "弟", "2597": "张", "2598": "弢", "2599": "弥", "2600": "弦", "2601": "弧", "2602": "弨", "2603": "弩", "2604": "弭", "2605": "弮", "2606": "弯", "2607": "弰", "2608": "弱", "2609": "弸", "2610": "弹", "2611": "强", "2612": "弼", "2613": "彀", "2614": "彊", "2615": "彍", "2616": "归", "2617": "当", "2618": "录", "2619": "彖", "2620": "彗", "2621": "彘", "2622": "彚", "2623": "彛", "2624": "彜", "2625": "彝", "2626": "彞", "2627": "彟", "2628": "彡", "2629": "形", "2630": "彣", "2631": "彤", "2632": "彦", "2633": "彧", "2634": "彩", "2635": "彪", "2636": "彬", "2637": "彭", "2638": "彯", "2639": "彰", "2640": "影", "2641": "彳", "2642": "彴", "2643": "彷", "2644": "役", "2645": "彻", "2646": "彼", "2647": "往", "2648": "征", "2649": "徂", "2650": "徃", "2651": "径", "2652": "待", "2653": "徇", "2654": "很", "2655": "徉", "2656": "徊", "2657": "律", "2658": "徐", "2659": "徒", "2660": "従", "2661": "徕", "2662": "得", "2663": "徘", "2664": "徙", "2665": "徜", "2666": "御", "2667": "徤", "2668": "徧", "2669": "徨", "2670": "循", "2671": "徬", "2672": "徭", "2673": "微", "2674": "徯", "2675": "徴", "2676": "徵", "2677": "德", "2678": "徼", "2679": "徽", "2680": "徾", "2681": "心", "2682": "忄", "2683": "必", "2684": "忆", "2685": "忉", "2686": "忌", "2687": "忍", "2688": "忏", "2689": "忒", "2690": "忖", "2691": "志", "2692": "忘", "2693": "忙", "2694": "忝", "2695": "忠", "2696": "忡", "2697": "忤", "2698": "忧", "2699": "忩", "2700": "忪", "2701": "快", "2702": "忭", "2703": "忮", "2704": "忱", "2705": "忲", "2706": "念", "2707": "忷", "2708": "忸", "2709": "忺", "2710": "忻", "2711": "忼", "2712": "忽", "2713": "忾", "2714": "忿", "2715": "怀", "2716": "态", "2717": "怂", "2718": "怃", "2719": "怅", "2720": "怆", "2721": "怊", "2722": "怍", "2723": "怎", "2724": "怏", "2725": "怐", "2726": "怒", "2727": "怓", "2728": "怔", "2729": "怕", "2730": "怖", "2731": "怗", "2732": "怙", "2733": "怛", "2734": "怜", "2735": "思", "2736": "怞", "2737": "怠", "2738": "怡", "2739": "怤", "2740": "急", "2741": "怦", "2742": "性", "2743": "怨", "2744": "怩", "2745": "怪", "2746": "怫", "2747": "怯", "2748": "怱", "2749": "怲", "2750": "怳", "2751": "怵", "2752": "总", "2753": "怼", "2754": "怿", "2755": "恀", "2756": "恁", "2757": "恂", "2758": "恃", "2759": "恇", "2760": "恈", "2761": "恉", "2762": "恊", "2763": "恋", "2764": "恌", "2765": "恍", "2766": "恐", "2767": "恒", "2768": "恓", "2769": "恔", "2770": "恕", "2771": "恙", "2772": "恚", "2773": "恝", "2774": "恞", "2775": "恟", "2776": "恠", "2777": "恡", "2778": "恢", "2779": "恣", "2780": "恤", "2781": "恧", "2782": "恨", "2783": "恩", "2784": "恪", "2785": "恫", "2786": "恬", "2787": "恭", "2788": "息", "2789": "恰", "2790": "恳", "2791": "恵", "2792": "恶", "2793": "恸", "2794": "恺", "2795": "恻", "2796": "恼", "2797": "恽", "2798": "恿", "2799": "悁", "2800": "悃", "2801": "悄", "2802": "悉", "2803": "悊", "2804": "悋", "2805": "悌", "2806": "悍", "2807": "悒", "2808": "悔", "2809": "悕", "2810": "悖", "2811": "悗", "2812": "悚", "2813": "悛", "2814": "悝", "2815": "悟", "2816": "悠", "2817": "悢", "2818": "患", "2819": "悤", "2820": "悦", "2821": "悫", "2822": "悬", "2823": "悭", "2824": "悮", "2825": "悯", "2826": "悰", "2827": "悱", "2828": "悲", "2829": "悴", "2830": "悷", "2831": "悸", "2832": "悹", "2833": "悺", "2834": "悻", "2835": "悼", "2836": "悾", "2837": "惄", "2838": "情", "2839": "惆", "2840": "惇", "2841": "惉", "2842": "惊", "2843": "惋", "2844": "惎", "2845": "惏", "2846": "惑", "2847": "惓", "2848": "惔", "2849": "惕", "2850": "惘", "2851": "惙", "2852": "惚", "2853": "惛", "2854": "惜", "2855": "惝", "2856": "惞", "2857": "惟", "2858": "惠", "2859": "惣", "2860": "惥", "2861": "惧", "2862": "惨", "2863": "惩", "2864": "惫", "2865": "惬", "2866": "惭", "2867": "惮", "2868": "惯", "2869": "惰", "2870": "想", "2871": "惴", "2872": "惵", "2873": "惶", "2874": "惷", "2875": "惸", "2876": "惹", "2877": "惺", "2878": "惽", "2879": "愀", "2880": "愁", "2881": "愆", "2882": "愈", "2883": "愉", "2884": "愊", "2885": "愍", "2886": "愎", "2887": "意", "2888": "愐", "2889": "愒", "2890": "愓", "2891": "愔", "2892": "愕", "2893": "愗", "2894": "愚", "2895": "愞", "2896": "感", "2897": "愠", "2898": "愡", "2899": "愤", "2900": "愦", "2901": "愧", "2902": "愫", "2903": "愬", "2904": "愯", "2905": "愶", "2906": "愸", "2907": "愽", "2908": "愿", "2909": "慁", "2910": "慂", "2911": "慅", "2912": "慆", "2913": "慇", "2914": "慈", "2915": "慉", "2916": "慊", "2917": "慌", "2918": "慎", "2919": "慑", "2920": "慓", "2921": "慕", "2922": "慙", "2923": "慜", "2924": "慝", "2925": "慞", "2926": "慠", "2927": "慢", "2928": "慥", "2929": "慦", "2930": "慧", "2931": "慨", "2932": "慬", "2933": "慭", "2934": "慰", "2935": "慱", "2936": "慴", "2937": "慵", "2938": "慷", "2939": "慹", "2940": "慽", "2941": "慿", "2942": "憀", "2943": "憃", "2944": "憇", "2945": "憍", "2946": "憎", "2947": "憔", "2948": "憕", "2949": "憗", "2950": "憘", "2951": "憙", "2952": "憝", "2953": "憞", "2954": "憧", "2955": "憨", "2956": "憩", "2957": "憪", "2958": "憬", "2959": "憭", "2960": "憯", "2961": "憺", "2962": "憾", "2963": "懃", "2964": "懅", "2965": "懆", "2966": "懈", "2967": "懊", "2968": "懋", "2969": "懐", "2970": "懑", "2971": "懒", "2972": "懔", "2973": "懕", "2974": "懘", "2975": "懜", "2976": "懡", "2977": "懦", "2978": "懫", "2979": "懰", "2980": "懴", "2981": "懵", "2982": "懽", "2983": "懿", "2984": "戁", "2985": "戃", "2986": "戄", "2987": "戅", "2988": "戆", "2989": "戈", "2990": "戊", "2991": "戋", "2992": "戌", "2993": "戍", "2994": "戎", "2995": "戏", "2996": "成", "2997": "我", "2998": "戒", "2999": "戕", "3000": "或", "3001": "戗", "3002": "战", "3003": "戙", "3004": "戚", "3005": "戛", "3006": "戞", "3007": "戟", "3008": "戡", "3009": "戢", "3010": "戣", "3011": "截", "3012": "戬", "3013": "戭", "3014": "戮", "3015": "戯", "3016": "戳", "3017": "戴", "3018": "戵", "3019": "户", "3020": "戸", "3021": "戹", "3022": "戺", "3023": "戽", "3024": "戾", "3025": "房", "3026": "所", "3027": "扁", "3028": "扃", "3029": "扄", "3030": "扅", "3031": "扆", "3032": "扇", "3033": "扈", "3034": "扉", "3035": "扊", "3036": "手", "3037": "扌", "3038": "才", "3039": "扎", "3040": "扐", "3041": "扑", "3042": "打", "3043": "扔", "3044": "托", "3045": "扛", "3046": "扞", "3047": "扟", "3048": "扠", "3049": "扢", "3050": "扣", "3051": "扤", "3052": "执", "3053": "扩", "3054": "扪", "3055": "扫", "3056": "扬", "3057": "扭", "3058": "扯", "3059": "扰", "3060": "扱", "3061": "扳", "3062": "扴", "3063": "扵", "3064": "扶", "3065": "批", "3066": "扺", "3067": "扼", "3068": "承", "3069": "技", "3070": "抃", "3071": "抄", "3072": "抆", "3073": "抉", "3074": "把", "3075": "抏", "3076": "抑", "3077": "抒", "3078": "抓", "3079": "抔", "3080": "投", "3081": "抖", "3082": "抗", "3083": "折", "3084": "抚", "3085": "抛", "3086": "抜", "3087": "抝", "3088": "抟", "3089": "抠", "3090": "抡", "3091": "抢", "3092": "护", "3093": "报", "3094": "抨", "3095": "披", "3096": "抬", "3097": "抰", "3098": "抱", "3099": "抳", "3100": "抵", "3101": "抶", "3102": "抸", "3103": "抹", "3104": "抺", "3105": "押", "3106": "抽", "3107": "拂", "3108": "拄", "3109": "担", "3110": "拆", "3111": "拇", "3112": "拈", "3113": "拉", "3114": "拊", "3115": "拌", "3116": "拍", "3117": "拏", "3118": "拐", "3119": "拑", "3120": "拒", "3121": "拓", "3122": "拔", "3123": "拕", "3124": "拖", "3125": "拗", "3126": "拘", "3127": "拙", "3128": "拚", "3129": "招", "3130": "拜", "3131": "拟", "3132": "拢", "3133": "拣", "3134": "拥", "3135": "拦", "3136": "拨", "3137": "择", "3138": "拪", "3139": "拫", "3140": "括", "3141": "拭", "3142": "拮", "3143": "拯", "3144": "拱", "3145": "拲", "3146": "拳", "3147": "拴", "3148": "拶", "3149": "拷", "3150": "拺", "3151": "拼", "3152": "拽", "3153": "拾", "3154": "拿", "3155": "持", "3156": "挂", "3157": "挃", "3158": "挅", "3159": "指", "3160": "挈", "3161": "按", "3162": "挍", "3163": "挏", "3164": "挐", "3165": "挑", "3166": "挖", "3167": "挚", "3168": "挛", "3169": "挝", "3170": "挞", "3171": "挟", "3172": "挠", "3173": "挣", "3174": "挤", "3175": "挥", "3176": "挦", "3177": "挨", "3178": "挪", "3179": "挫", "3180": "振", "3181": "挲", "3182": "挳", "3183": "挶", "3184": "挹", "3185": "挺", "3186": "挻", "3187": "挼", "3188": "挽", "3189": "挿", "3190": "捂", "3191": "捃", "3192": "捄", "3193": "捆", "3194": "捈", "3195": "捉", "3196": "捋", "3197": "捍", "3198": "捎", "3199": "捏", "3200": "捐", "3201": "捕", "3202": "捘", "3203": "捜", "3204": "捞", "3205": "损", "3206": "捡", "3207": "换", "3208": "捣", "3209": "捥", "3210": "捧", "3211": "捩", "3212": "捭", "3213": "据", "3214": "捶", "3215": "捷", "3216": "捺", "3217": "捻", "3218": "捽", "3219": "掀", "3220": "掁", "3221": "掇", "3222": "授", "3223": "掉", "3224": "掊", "3225": "掌", "3226": "掎", "3227": "掏", "3228": "掐", "3229": "排", "3230": "掔", "3231": "掖", "3232": "掘", "3233": "掞", "3234": "掠", "3235": "探", "3236": "掣", "3237": "接", "3238": "掦", "3239": "控", "3240": "推", "3241": "掩", "3242": "措", "3243": "掫", "3244": "掬", "3245": "掭", "3246": "掲", "3247": "掳", "3248": "掴", "3249": "掷", "3250": "掺", "3251": "掻", "3252": "掾", "3253": "揄", "3254": "揆", "3255": "揉", "3256": "揌", "3257": "揎", "3258": "描", "3259": "提", "3260": "揑", "3261": "插", "3262": "揔", "3263": "揕", "3264": "揖", "3265": "揜", "3266": "揞", "3267": "揠", "3268": "握", "3269": "揣", "3270": "揥", "3271": "揩", "3272": "揪", "3273": "揫", "3274": "揬", "3275": "揭", "3276": "揲", "3277": "揳", "3278": "援", "3279": "揵", "3280": "揶", "3281": "揷", "3282": "揸", "3283": "揺", "3284": "揽", "3285": "揾", "3286": "搀", "3287": "搂", "3288": "搅", "3289": "搆", "3290": "搉", "3291": "搊", "3292": "搏", "3293": "搐", "3294": "搒", "3295": "搓", "3296": "搔", "3297": "搘", "3298": "搜", "3299": "搢", "3300": "搤", "3301": "搥", "3302": "搦", "3303": "搨", "3304": "搪", "3305": "搬", "3306": "搭", "3307": "搯", "3308": "搰", "3309": "搴", "3310": "携", "3311": "搽", "3312": "摃", "3313": "摄", "3314": "摅", "3315": "摆", "3316": "摇", "3317": "摈", "3318": "摊", "3319": "摎", "3320": "摏", "3321": "摒", "3322": "摖", "3323": "摘", "3324": "摚", "3325": "摛", "3326": "摝", "3327": "摧", "3328": "摩", "3329": "摭", "3330": "摰", "3331": "摴", "3332": "摵", "3333": "摸", "3334": "摹", "3335": "摽", "3336": "撁", "3337": "撃", "3338": "撄", "3339": "撅", "3340": "撇", "3341": "撋", "3342": "撑", "3343": "撒", "3344": "撕", "3345": "撖", "3346": "撗", "3347": "撘", "3348": "撙", "3349": "撚", "3350": "撜", "3351": "撞", "3352": "撢", "3353": "撤", "3354": "撦", "3355": "撩", "3356": "播", "3357": "撮", "3358": "撰", "3359": "撶", "3360": "撷", "3361": "撺", "3362": "撼", "3363": "擂", "3364": "擅", "3365": "擈", "3366": "擉", "3367": "操", "3368": "擎", "3369": "擐", "3370": "擒", "3371": "擕", "3372": "擖", "3373": "擗", "3374": "擘", "3375": "擞", "3376": "擡", "3377": "擢", "3378": "擥", "3379": "擦", "3380": "擧", "3381": "擩", "3382": "擪", "3383": "擭", "3384": "擿", "3385": "攀", "3386": "攂", "3387": "攃", "3388": "攅", "3389": "攉", "3390": "攎", "3391": "攑", "3392": "攒", "3393": "攓", "3394": "攕", "3395": "攘", "3396": "攞", "3397": "攟", "3398": "攡", "3399": "攦", "3400": "攧", "3401": "攫", "3402": "支", "3403": "攲", "3404": "攵", "3405": "收", "3406": "攷", "3407": "攸", "3408": "改", "3409": "攻", "3410": "攽", "3411": "放", "3412": "政", "3413": "敂", "3414": "故", "3415": "敇", "3416": "效", "3417": "敉", "3418": "敌", "3419": "敍", "3420": "敏", "3421": "救", "3422": "敔", "3423": "敕", "3424": "敖", "3425": "教", "3426": "敚", "3427": "敛", "3428": "敝", "3429": "敞", "3430": "敢", "3431": "散", "3432": "敦", "3433": "敧", "3434": "敩", "3435": "敬", "3436": "敭", "3437": "数", "3438": "敱", "3439": "敲", "3440": "敳", "3441": "整", "3442": "敷", "3443": "敺", "3444": "敻", "3445": "斁", "3446": "文", "3447": "斋", "3448": "斌", "3449": "斎", "3450": "斐", "3451": "斑", "3452": "斒", "3453": "斓", "3454": "斔", "3455": "斖", "3456": "斗", "3457": "料", "3458": "斚", "3459": "斛", "3460": "斜", "3461": "斝", "3462": "斟", "3463": "斡", "3464": "斤", "3465": "斥", "3466": "斧", "3467": "斨", "3468": "斩", "3469": "斫", "3470": "断", "3471": "斮", "3472": "斯", "3473": "新", "3474": "斲", "3475": "斵", "3476": "斶", "3477": "方", "3478": "於", "3479": "施", "3480": "斾", "3481": "斿", "3482": "旁", "3483": "旃", "3484": "旄", "3485": "旅", "3486": "旆", "3487": "旈", "3488": "旉", "3489": "旋", "3490": "旌", "3491": "旍", "3492": "旎", "3493": "族", "3494": "旐", "3495": "旒", "3496": "旓", "3497": "旖", "3498": "旗", "3499": "旛", "3500": "旜", "3501": "旝", "3502": "旟", "3503": "无", "3504": "旡", "3505": "既", "3506": "日", "3507": "旦", "3508": "旧", "3509": "旨", "3510": "早", "3511": "旬", "3512": "旭", "3513": "旰", "3514": "旱", "3515": "旳", "3516": "旴", "3517": "旵", "3518": "时", "3519": "旷", "3520": "旸", "3521": "旺", "3522": "旻", "3523": "旼", "3524": "旿", "3525": "昂", "3526": "昃", "3527": "昄", "3528": "昆", "3529": "昈", "3530": "昉", "3531": "昊", "3532": "昋", "3533": "昌", "3534": "明", "3535": "昏", "3536": "昐", "3537": "易", "3538": "昔", "3539": "昕", "3540": "昙", "3541": "昚", "3542": "昜", "3543": "昝", "3544": "昞", "3545": "星", "3546": "映", "3547": "昡", "3548": "春", "3549": "昧", "3550": "昨", "3551": "昩", "3552": "昪", "3553": "昫", "3554": "昬", "3555": "昭", "3556": "是", "3557": "昱", "3558": "昳", "3559": "昴", "3560": "昵", "3561": "昶", "3562": "昷", "3563": "昺", "3564": "昻", "3565": "昼", "3566": "昽", "3567": "显", "3568": "晀", "3569": "晁", "3570": "晃", "3571": "晅", "3572": "晋", "3573": "晌", "3574": "晏", "3575": "晒", "3576": "晓", "3577": "晔", "3578": "晕", "3579": "晖", "3580": "晙", "3581": "晚", "3582": "晜", "3583": "晞", "3584": "晟", "3585": "晡", "3586": "晢", "3587": "晣", "3588": "晤", "3589": "晥", "3590": "晦", "3591": "晧", "3592": "晨", "3593": "晫", "3594": "晬", "3595": "普", "3596": "景", "3597": "晰", "3598": "晱", "3599": "晲", "3600": "晳", "3601": "晴", "3602": "晶", "3603": "晷", "3604": "晹", "3605": "智", "3606": "晻", "3607": "晼", "3608": "暀", "3609": "暂", "3610": "暄", "3611": "暇", "3612": "暋", "3613": "暌", "3614": "暍", "3615": "暎", "3616": "暏", "3617": "暑", "3618": "暕", "3619": "暖", "3620": "暗", "3621": "暝", "3622": "暠", "3623": "暡", "3624": "暥", "3625": "暧", "3626": "暨", "3627": "暪", "3628": "暮", "3629": "暱", "3630": "暴", "3631": "暵", "3632": "暹", "3633": "暾", "3634": "曀", "3635": "曁", "3636": "曈", "3637": "曌", "3638": "曒", "3639": "曙", "3640": "曚", "3641": "曛", "3642": "曜", "3643": "曝", "3644": "曡", "3645": "曣", "3646": "曦", "3647": "曩", "3648": "曭", "3649": "曰", "3650": "曲", "3651": "曳", "3652": "更", "3653": "曵", "3654": "曶", "3655": "曷", "3656": "曹", "3657": "曺", "3658": "曼", "3659": "曾", "3660": "替", "3661": "最", "3662": "朂", "3663": "朅", "3664": "月", "3665": "有", "3666": "朋", "3667": "朌", "3668": "服", "3669": "朏", "3670": "朐", "3671": "朒", "3672": "朓", "3673": "朔", "3674": "朕", "3675": "朗", "3676": "朘", "3677": "朙", "3678": "望", "3679": "朝", "3680": "朞", "3681": "期", "3682": "朡", "3683": "朣", "3684": "朦", "3685": "木", "3686": "未", "3687": "末", "3688": "本", "3689": "札", "3690": "术", "3691": "朱", "3692": "朴", "3693": "朵", "3694": "朶", "3695": "机", "3696": "朽", "3697": "朾", "3698": "朿", "3699": "杀", "3700": "杂", "3701": "权", "3702": "杅", "3703": "杆", "3704": "杇", "3705": "杈", "3706": "杉", "3707": "杌", "3708": "杍", "3709": "李", "3710": "杏", "3711": "材", "3712": "村", "3713": "杓", "3714": "杕", "3715": "杖", "3716": "杗", "3717": "杙", "3718": "杜", "3719": "杝", "3720": "杞", "3721": "束", "3722": "杠", "3723": "条", "3724": "来", "3725": "杨", "3726": "杪", "3727": "杭", "3728": "杮", "3729": "杯", "3730": "杰", "3731": "杲", "3732": "杳", "3733": "杴", "3734": "杵", "3735": "杶", "3736": "杷", "3737": "杻", "3738": "杼", "3739": "松", "3740": "板", "3741": "极", "3742": "构", "3743": "枅", "3744": "枇", "3745": "枉", "3746": "枋", "3747": "枌", "3748": "枍", "3749": "枎", "3750": "枏", "3751": "析", "3752": "枑", "3753": "枒", "3754": "枓", "3755": "枕", "3756": "林", "3757": "枘", "3758": "枚", "3759": "果", "3760": "枝", "3761": "枞", "3762": "枢", "3763": "枣", "3764": "枤", "3765": "枥", "3766": "枦", "3767": "枨", "3768": "枪", "3769": "枫", "3770": "枭", "3771": "枮", "3772": "枯", "3773": "枰", "3774": "枲", "3775": "枳", "3776": "枵", "3777": "架", "3778": "枷", "3779": "枸", "3780": "枹", "3781": "枻", "3782": "枿", "3783": "柀", "3784": "柁", "3785": "柂", "3786": "柄", "3787": "柅", "3788": "柈", "3789": "柍", "3790": "柎", "3791": "柏", "3792": "某", "3793": "柑", "3794": "染", "3795": "柔", "3796": "柘", "3797": "柙", "3798": "柚", "3799": "柜", "3800": "柝", "3801": "柞", "3802": "柟", "3803": "柢", "3804": "柣", "3805": "柤", "3806": "查", "3807": "柧", "3808": "柩", "3809": "柪", "3810": "柫", "3811": "柬", "3812": "柮", "3813": "柯", "3814": "柰", "3815": "柱", "3816": "柳", "3817": "柴", "3818": "柷", "3819": "柸", "3820": "柹", "3821": "柽", "3822": "柿", "3823": "栀", "3824": "栅", "3825": "标", "3826": "栈", "3827": "栉", "3828": "栊", "3829": "栋", "3830": "栌", "3831": "栎", "3832": "栏", "3833": "栐", "3834": "树", "3835": "栒", "3836": "栖", "3837": "栗", "3838": "栛", "3839": "栝", "3840": "栞", "3841": "栟", "3842": "校", "3843": "栢", "3844": "栥", "3845": "栧", "3846": "栩", "3847": "株", "3848": "栭", "3849": "栮", "3850": "栯", "3851": "栰", "3852": "栱", "3853": "栲", "3854": "栴", "3855": "样", "3856": "核", "3857": "根", "3858": "栺", "3859": "栻", "3860": "格", "3861": "栽", "3862": "栾", "3863": "桀", "3864": "桁", "3865": "桂", "3866": "桃", "3867": "桄", "3868": "桅", "3869": "案", "3870": "桉", "3871": "桋", "3872": "桌", "3873": "桎", "3874": "桐", "3875": "桑", "3876": "桒", "3877": "桓", "3878": "桔", "3879": "桕", "3880": "桞", "3881": "桠", "3882": "桡", "3883": "桢", "3884": "桤", "3885": "桥", "3886": "桦", "3887": "桧", "3888": "桨", "3889": "桩", "3890": "桭", "3891": "桮", "3892": "桯", "3893": "桲", "3894": "桴", "3895": "桶", "3896": "桷", "3897": "桹", "3898": "梀", "3899": "梁", "3900": "梃", "3901": "梅", "3902": "梏", "3903": "梐", "3904": "梓", "3905": "梗", "3906": "梠", "3907": "梡", "3908": "梢", "3909": "梦", "3910": "梧", "3911": "梨", "3912": "梩", "3913": "梬", "3914": "梭", "3915": "梮", "3916": "梯", "3917": "械", "3918": "梱", "3919": "梳", "3920": "梴", "3921": "梵", "3922": "梼", "3923": "检", "3924": "棁", "3925": "棂", "3926": "棃", "3927": "棅", "3928": "棆", "3929": "棉", "3930": "棋", "3931": "棌", "3932": "棐", "3933": "棒", "3934": "棓", "3935": "棕", "3936": "棘", "3937": "棙", "3938": "棚", "3939": "棠", "3940": "棣", "3941": "棦", "3942": "棨", "3943": "棫", "3944": "棬", "3945": "森", "3946": "棰", "3947": "棱", "3948": "棵", "3949": "棹", "3950": "棺", "3951": "棻", "3952": "棼", "3953": "棽", "3954": "椀", "3955": "椁", "3956": "椅", "3957": "椇", "3958": "椈", "3959": "椌", "3960": "植", "3961": "椎", "3962": "椑", "3963": "椒", "3964": "椓", "3965": "椟", "3966": "椠", "3967": "椭", "3968": "椮", "3969": "椰", "3970": "椴", "3971": "椶", "3972": "椷", "3973": "椸", "3974": "椹", "3975": "椽", "3976": "椾", "3977": "椿", "3978": "楀", "3979": "楂", "3980": "楅", "3981": "楒", "3982": "楔", "3983": "楖", "3984": "楗", "3985": "楘", "3986": "楙", "3987": "楚", "3988": "楛", "3989": "楝", "3990": "楞", "3991": "楠", "3992": "楡", "3993": "楢", "3994": "楣", "3995": "楥", "3996": "楦", "3997": "楩", "3998": "楪", "3999": "楫", "4000": "楬", "4001": "楮", "4002": "楯", "4003": "楰", "4004": "楱", "4005": "楳", "4006": "楶", "4007": "楷", "4008": "楸", "4009": "楹", "4010": "楼", "4011": "概", "4012": "榄", "4013": "榅", "4014": "榆", "4015": "榇", "4016": "榈", "4017": "榉", "4018": "榔", "4019": "榕", "4020": "榛", "4021": "榜", "4022": "榝", "4023": "榞", "4024": "榠", "4025": "榤", "4026": "榥", "4027": "榧", "4028": "榨", "4029": "榭", "4030": "榰", "4031": "榱", "4032": "榴", "4033": "榷", "4034": "榸", "4035": "榹", "4036": "榻", "4037": "榼", "4038": "榾", "4039": "槀", "4040": "槁", "4041": "槃", "4042": "槊", "4043": "槌", "4044": "槎", "4045": "槐", "4046": "槔", "4047": "槖", "4048": "様", "4049": "槚", "4050": "槛", "4051": "槜", "4052": "槟", "4053": "槠", "4054": "槢", "4055": "槥", "4056": "槦", "4057": "槩", "4058": "槬", "4059": "槭", "4060": "槱", "4061": "槲", "4062": "槴", "4063": "槷", "4064": "槸", "4065": "槹", "4066": "槽", "4067": "槿", "4068": "樀", "4069": "樊", "4070": "樏", "4071": "樐", "4072": "樔", "4073": "樕", "4074": "樗", "4075": "樛", "4076": "樝", "4077": "樟", "4078": "模", "4079": "樨", "4080": "横", "4081": "樯", "4082": "樱", "4083": "樲", "4084": "樵", "4085": "樷", "4086": "樽", "4087": "樾", "4088": "橄", "4089": "橅", "4090": "橆", "4091": "橇", "4092": "橐", "4093": "橑", "4094": "橘", "4095": "橙", "4096": "橚", "4097": "橛", "4098": "橜", "4099": "橡", "4100": "橤", "4101": "橦", "4102": "橧", "4103": "橰", "4104": "橱", "4105": "橹", "4106": "橼", "4107": "檀", "4108": "檃", "4109": "檄", "4110": "檇", "4111": "檈", "4112": "檎", "4113": "檐", "4114": "檑", "4115": "檗", "4116": "檛", "4117": "檝", "4118": "檞", "4119": "檠", "4120": "檥", "4121": "檾", "4122": "檿", "4123": "櫂", "4124": "櫋", "4125": "櫐", "4126": "櫑", "4127": "櫜", "4128": "櫩", "4129": "櫰", "4130": "櫺", "4131": "櫽", "4132": "欀", "4133": "欂", "4134": "欃", "4135": "欈", "4136": "欎", "4137": "欔", "4138": "欙", "4139": "欛", "4140": "欝", "4141": "欠", "4142": "次", "4143": "欢", "4144": "欣", "4145": "欤", "4146": "欧", "4147": "欬", "4148": "欱", "4149": "欲", "4150": "欵", "4151": "欶", "4152": "欷", "4153": "欸", "4154": "欹", "4155": "欺", "4156": "欻", "4157": "款", "4158": "欿", "4159": "歃", "4160": "歅", "4161": "歆", "4162": "歇", "4163": "歈", "4164": "歉", "4165": "歊", "4166": "歋", "4167": "歌", "4168": "歏", "4169": "歔", "4170": "歕", "4171": "歖", "4172": "歗", "4173": "歘", "4174": "歙", "4175": "歛", "4176": "歜", "4177": "歝", "4178": "歠", "4179": "止", "4180": "正", "4181": "此", "4182": "步", "4183": "武", "4184": "歧", "4185": "歩", "4186": "歭", "4187": "歳", "4188": "歴", "4189": "歹", "4190": "死", "4191": "歼", "4192": "殀", "4193": "殁", "4194": "殂", "4195": "殃", "4196": "殄", "4197": "殆", "4198": "殇", "4199": "殉", "4200": "殊", "4201": "残", "4202": "殍", "4203": "殑", "4204": "殒", "4205": "殓", "4206": "殖", "4207": "殗", "4208": "殙", "4209": "殚", "4210": "殛", "4211": "殡", "4212": "殣", "4213": "殪", "4214": "殱", "4215": "殳", "4216": "殴", "4217": "段", "4218": "殷", "4219": "殽", "4220": "殿", "4221": "毁", "4222": "毂", "4223": "毅", "4224": "毉", "4225": "毋", "4226": "毌", "4227": "母", "4228": "毎", "4229": "每", "4230": "毒", "4231": "毓", "4232": "比", "4233": "毕", "4234": "毖", "4235": "毗", "4236": "毘", "4237": "毙", "4238": "毚", "4239": "毛", "4240": "毡", "4241": "毣", "4242": "毨", "4243": "毫", "4244": "毬", "4245": "毯", "4246": "毰", "4247": "毳", "4248": "毵", "4249": "毶", "4250": "毸", "4251": "毹", "4252": "毺", "4253": "毼", "4254": "毾", "4255": "氃", "4256": "氄", "4257": "氅", "4258": "氊", "4259": "氋", "4260": "氍", "4261": "氎", "4262": "氏", "4263": "氐", "4264": "民", "4265": "氓", "4266": "气", "4267": "氛", "4268": "氜", "4269": "氤", "4270": "氲", "4271": "水", "4272": "氵", "4273": "氶", "4274": "氷", "4275": "永", "4276": "汀", "4277": "汁", "4278": "求", "4279": "汃", "4280": "汇", "4281": "汉", "4282": "汊", "4283": "汍", "4284": "汏", "4285": "汐", "4286": "汑", "4287": "汒", "4288": "汔", "4289": "汕", "4290": "汗", "4291": "汚", "4292": "汛", "4293": "汜", "4294": "汝", "4295": "汞", "4296": "江", "4297": "池", "4298": "污", "4299": "汤", "4300": "汧", "4301": "汨", "4302": "汩", "4303": "汪", "4304": "汭", "4305": "汰", "4306": "汲", "4307": "汳", "4308": "汴", "4309": "汶", "4310": "汸", "4311": "汹", "4312": "汻", "4313": "汾", "4314": "沁", "4315": "沂", "4316": "沃", "4317": "沄", "4318": "沅", "4319": "沆", "4320": "沇", "4321": "沈", "4322": "沉", "4323": "沌", "4324": "沍", "4325": "沏", "4326": "沐", "4327": "沓", "4328": "沔", "4329": "沕", "4330": "沘", "4331": "沙", "4332": "沚", "4333": "沛", "4334": "沜", "4335": "沟", "4336": "沠", "4337": "没", "4338": "沣", "4339": "沤", "4340": "沥", "4341": "沦", "4342": "沧", "4343": "沨", "4344": "沩", "4345": "沪", "4346": "沫", "4347": "沬", "4348": "沭", "4349": "沮", "4350": "沱", "4351": "沲", "4352": "河", "4353": "沴", "4354": "沸", "4355": "油", "4356": "治", "4357": "沼", "4358": "沽", "4359": "沾", "4360": "沿", "4361": "泂", "4362": "泄", "4363": "泅", "4364": "泆", "4365": "泉", "4366": "泊", "4367": "泌", "4368": "泎", "4369": "泐", "4370": "泒", "4371": "泓", "4372": "泔", "4373": "法", "4374": "泖", "4375": "泗", "4376": "泙", "4377": "泚", "4378": "泛", "4379": "泜", "4380": "泞", "4381": "泠", "4382": "泡", "4383": "波", "4384": "泣", "4385": "泥", "4386": "注", "4387": "泪", "4388": "泫", "4389": "泬", "4390": "泮", "4391": "泯", "4392": "泰", "4393": "泱", "4394": "泲", "4395": "泳", "4396": "泷", "4397": "泸", "4398": "泺", "4399": "泻", "4400": "泼", "4401": "泽", "4402": "泾", "4403": "泿", "4404": "洁", "4405": "洄", "4406": "洊", "4407": "洋", "4408": "洌", "4409": "洎", "4410": "洏", "4411": "洐", "4412": "洑", "4413": "洒", "4414": "洓", "4415": "洗", "4416": "洘", "4417": "洙", "4418": "洚", "4419": "洛", "4420": "洞", "4421": "洟", "4422": "津", "4423": "洧", "4424": "洨", "4425": "洪", "4426": "洫", "4427": "洮", "4428": "洱", "4429": "洲", "4430": "洳", "4431": "洴", "4432": "洵", "4433": "洷", "4434": "洸", "4435": "洹", "4436": "洺", "4437": "活", "4438": "洼", "4439": "洽", "4440": "派", "4441": "洿", "4442": "流", "4443": "浃", "4444": "浄", "4445": "浅", "4446": "浆", "4447": "浇", "4448": "浈", "4449": "浉", "4450": "浊", "4451": "测", "4452": "浍", "4453": "济", "4454": "浏", "4455": "浐", "4456": "浑", "4457": "浒", "4458": "浓", "4459": "浔", "4460": "浙", "4461": "浚", "4462": "浛", "4463": "浞", "4464": "浡", "4465": "浣", "4466": "浤", "4467": "浥", "4468": "浦", "4469": "浩", "4470": "浪", "4471": "浮", "4472": "浯", "4473": "浰", "4474": "浴", "4475": "海", "4476": "浸", "4477": "浺", "4478": "浻", "4479": "浼", "4480": "浽", "4481": "涂", "4482": "涅", "4483": "消", "4484": "涉", "4485": "涊", "4486": "涌", "4487": "涍", "4488": "涎", "4489": "涏", "4490": "涑", "4491": "涒", "4492": "涓", "4493": "涔", "4494": "涕", "4495": "涖", "4496": "涘", "4497": "涙", "4498": "涚", "4499": "涛", "4500": "涝", "4501": "涞", "4502": "涟", "4503": "涠", "4504": "涡", "4505": "涢", "4506": "涣", "4507": "涤", "4508": "润", "4509": "涧", "4510": "涨", "4511": "涩", "4512": "涪", "4513": "涫", "4514": "涬", "4515": "涯", "4516": "液", "4517": "涳", "4518": "涴", "4519": "涵", "4520": "涶", "4521": "涷", "4522": "涸", "4523": "涿", "4524": "淀", "4525": "淂", "4526": "淄", "4527": "淅", "4528": "淆", "4529": "淇", "4530": "淈", "4531": "淊", "4532": "淋", "4533": "淎", "4534": "淑", "4535": "淔", "4536": "淖", "4537": "淘", "4538": "淙", "4539": "淛", "4540": "淜", "4541": "淝", "4542": "淞", "4543": "淟", "4544": "淡", "4545": "淤", "4546": "淦", "4547": "淫", "4548": "淬", "4549": "淮", "4550": "淯", "4551": "淰", "4552": "深", "4553": "淲", "4554": "淳", "4555": "混", "4556": "淸", "4557": "淹", "4558": "添", "4559": "淼", "4560": "渀", "4561": "清", "4562": "渇", "4563": "渊", "4564": "渌", "4565": "渍", "4566": "渎", "4567": "渐", "4568": "渑", "4569": "渔", "4570": "渕", "4571": "渗", "4572": "渚", "4573": "渝", "4574": "渟", "4575": "渠", "4576": "渡", "4577": "渣", "4578": "渤", "4579": "渥", "4580": "温", "4581": "渫", "4582": "渭", "4583": "港", "4584": "渰", "4585": "渲", "4586": "渴", "4587": "渶", "4588": "渷", "4589": "游", "4590": "渹", "4591": "渺", "4592": "渻", "4593": "渼", "4594": "湃", "4595": "湄", "4596": "湆", "4597": "湌", "4598": "湍", "4599": "湎", "4600": "湏", "4601": "湑", "4602": "湓", "4603": "湔", "4604": "湖", "4605": "湗", "4606": "湘", "4607": "湛", "4608": "湜", "4609": "湝", "4610": "湟", "4611": "湠", "4612": "湡", "4613": "湢", "4614": "湣", "4615": "湩", "4616": "湫", "4617": "湮", "4618": "湱", "4619": "湲", "4620": "湼", "4621": "湾", "4622": "湿", "4623": "溃", "4624": "溅", "4625": "溆", "4626": "溇", "4627": "溉", "4628": "溍", "4629": "源", "4630": "溓", "4631": "溔", "4632": "溘", "4633": "溜", "4634": "溞", "4635": "溟", "4636": "溠", "4637": "溢", "4638": "溥", "4639": "溧", "4640": "溪", "4641": "溯", "4642": "溰", "4643": "溱", "4644": "溲", "4645": "溴", "4646": "溵", "4647": "溶", "4648": "溷", "4649": "溺", "4650": "溻", "4651": "溽", "4652": "滀", "4653": "滁", "4654": "滂", "4655": "滃", "4656": "滆", "4657": "滇", "4658": "滈", "4659": "滉", "4660": "滋", "4661": "滍", "4662": "滏", "4663": "滑", "4664": "滓", "4665": "滔", "4666": "滕", "4667": "滚", "4668": "滛", "4669": "滞", "4670": "滟", "4671": "满", "4672": "滢", "4673": "滣", "4674": "滤", "4675": "滥", "4676": "滦", "4677": "滨", "4678": "滩", "4679": "滪", "4680": "滫", "4681": "滮", "4682": "滴", "4683": "滵", "4684": "滹", "4685": "漂", "4686": "漆", "4687": "漈", "4688": "漉", "4689": "漏", "4690": "漑", "4691": "漓", "4692": "演", "4693": "漕", "4694": "漘", "4695": "漙", "4696": "漠", "4697": "漡", "4698": "漥", "4699": "漦", "4700": "漩", "4701": "漪", "4702": "漫", "4703": "漭", "4704": "漯", "4705": "漰", "4706": "漱", "4707": "漳", "4708": "漴", "4709": "漶", "4710": "漺", "4711": "漻", "4712": "漼", "4713": "漾", "4714": "潀", "4715": "潄", "4716": "潆", "4717": "潇", "4718": "潋", "4719": "潍", "4720": "潎", "4721": "潏", "4722": "潒", "4723": "潓", "4724": "潗", "4725": "潘", "4726": "潜", "4727": "潞", "4728": "潟", "4729": "潠", "4730": "潡", "4731": "潢", "4732": "潦", "4733": "潨", "4734": "潩", "4735": "潬", "4736": "潭", "4737": "潮", "4738": "潴", "4739": "潸", "4740": "潺", "4741": "潼", "4742": "潾", "4743": "澁", "4744": "澂", "4745": "澄", "4746": "澈", "4747": "澉", "4748": "澌", "4749": "澍", "4750": "澎", "4751": "澑", "4752": "澒", "4753": "澘", "4754": "澜", "4755": "澟", "4756": "澡", "4757": "澣", "4758": "澥", "4759": "澧", "4760": "澨", "4761": "澳", "4762": "澴", "4763": "澶", "4764": "澹", "4765": "澼", "4766": "澽", "4767": "澿", "4768": "激", "4769": "濂", "4770": "濈", "4771": "濉", "4772": "濊", "4773": "濋", "4774": "濎", "4775": "濑", "4776": "濒", "4777": "濓", "4778": "濔", "4779": "濙", "4780": "濞", "4781": "濠", "4782": "濡", "4783": "濩", "4784": "濪", "4785": "濬", "4786": "濮", "4787": "濯", "4788": "濳", "4789": "濵", "4790": "濶", "4791": "瀁", "4792": "瀌", "4793": "瀍", "4794": "瀎", "4795": "瀑", "4796": "瀔", "4797": "瀚", "4798": "瀛", "4799": "瀜", "4800": "瀡", "4801": "瀣", "4802": "瀩", "4803": "瀫", "4804": "瀬", "4805": "瀴", "4806": "瀵", "4807": "瀹", "4808": "瀺", "4809": "瀼", "4810": "灀", "4811": "灂", "4812": "灇", "4813": "灉", "4814": "灊", "4815": "灌", "4816": "灏", "4817": "灔", "4818": "灜", "4819": "灞", "4820": "灢", "4821": "灨", "4822": "火", "4823": "灬", "4824": "灭", "4825": "灯", "4826": "灰", "4827": "灵", "4828": "灶", "4829": "灸", "4830": "灺", "4831": "灼", "4832": "灾", "4833": "灿", "4834": "炀", "4835": "炁", "4836": "炅", "4837": "炉", "4838": "炊", "4839": "炎", "4840": "炏", "4841": "炒", "4842": "炕", "4843": "炖", "4844": "炙", "4845": "炚", "4846": "炜", "4847": "炟", "4848": "炤", "4849": "炧", "4850": "炫", "4851": "炬", "4852": "炭", "4853": "炮", "4854": "炯", "4855": "炰", "4856": "炱", "4857": "炲", "4858": "炳", "4859": "炴", "4860": "炷", "4861": "点", "4862": "炼", "4863": "炽", "4864": "烁", "4865": "烂", "4866": "烈", "4867": "烊", "4868": "烋", "4869": "烓", "4870": "烘", "4871": "烙", "4872": "烛", "4873": "烜", "4874": "烝", "4875": "烟", "4876": "烦", "4877": "烧", "4878": "烨", "4879": "烬", "4880": "热", "4881": "烱", "4882": "烹", "4883": "烺", "4884": "烻", "4885": "烽", "4886": "焄", "4887": "焉", "4888": "焌", "4889": "焕", "4890": "焘", "4891": "焙", "4892": "焚", "4893": "焜", "4894": "焞", "4895": "焠", "4896": "焦", "4897": "焫", "4898": "焭", "4899": "焮", "4900": "焯", "4901": "焰", "4902": "焱", "4903": "然", "4904": "焼", "4905": "煁", "4906": "煅", "4907": "煆", "4908": "煊", "4909": "煌", "4910": "煎", "4911": "煏", "4912": "煑", "4913": "煕", "4914": "煖", "4915": "煗", "4916": "煜", "4917": "煞", "4918": "煠", "4919": "煤", "4920": "煦", "4921": "照", "4922": "煨", "4923": "煮", "4924": "煴", "4925": "煼", "4926": "煽", "4927": "熁", "4928": "熄", "4929": "熇", "4930": "熈", "4931": "熊", "4932": "熏", "4933": "熖", "4934": "熙", "4935": "熛", "4936": "熝", "4937": "熟", "4938": "熠", "4939": "熢", "4940": "熣", "4941": "熨", "4942": "熬", "4943": "熭", "4944": "熯", "4945": "熳", "4946": "熸", "4947": "熹", "4948": "熺", "4949": "燂", "4950": "燃", "4951": "燄", "4952": "燋", "4953": "燎", "4954": "燏", "4955": "燐", "4956": "燔", "4957": "燕", "4958": "燠", "4959": "燥", "4960": "燧", "4961": "燮", "4962": "燹", "4963": "燿", "4964": "爀", "4965": "爆", "4966": "爊", "4967": "爋", "4968": "爓", "4969": "爕", "4970": "爗", "4971": "爚", "4972": "爝", "4973": "爞", "4974": "爟", "4975": "爣", "4976": "爨", "4977": "爪", "4978": "爬", "4979": "爮", "4980": "爰", "4981": "爱", "4982": "爵", "4983": "父", "4984": "爷", "4985": "爹", "4986": "爻", "4987": "爼", "4988": "爽", "4989": "牁", "4990": "牂", "4991": "片", "4992": "版", "4993": "牋", "4994": "牌", "4995": "牍", "4996": "牎", "4997": "牏", "4998": "牐", "4999": "牑", "5000": "牒", "5001": "牓", "5002": "牕", "5003": "牖", "5004": "牗", "5005": "牙", "5006": "牛", "5007": "牝", "5008": "牟", "5009": "牡", "5010": "牢", "5011": "牣", "5012": "牥", "5013": "牦", "5014": "牧", "5015": "物", "5016": "牯", "5017": "牱", "5018": "牲", "5019": "牴", "5020": "牵", "5021": "牷", "5022": "牸", "5023": "特", "5024": "牺", "5025": "牼", "5026": "牾", "5027": "牿", "5028": "犀", "5029": "犁", "5030": "犂", "5031": "犄", "5032": "犇", "5033": "犉", "5034": "犊", "5035": "犍", "5036": "犒", "5037": "犗", "5038": "犠", "5039": "犦", "5040": "犨", "5041": "犩", "5042": "犬", "5043": "犭", "5044": "犯", "5045": "犴", "5046": "状", "5047": "犷", "5048": "犸", "5049": "犹", "5050": "犺", "5051": "狁", "5052": "狂", "5053": "狃", "5054": "狄", "5055": "狈", "5056": "狉", "5057": "狌", "5058": "狎", "5059": "狐", "5060": "狒", "5061": "狔", "5062": "狖", "5063": "狗", "5064": "狘", "5065": "狙", "5066": "狝", "5067": "狞", "5068": "狠", "5069": "狡", "5070": "狢", "5071": "狥", "5072": "狦", "5073": "狨", "5074": "狩", "5075": "独", "5076": "狭", "5077": "狮", "5078": "狯", "5079": "狰", "5080": "狱", "5081": "狲", "5082": "狴", "5083": "狵", "5084": "狶", "5085": "狷", "5086": "狸", "5087": "狺", "5088": "狻", "5089": "狼", "5090": "猃", "5091": "猊", "5092": "猋", "5093": "猎", "5094": "猒", "5095": "猓", "5096": "猕", "5097": "猖", "5098": "猗", "5099": "猘", "5100": "猛", "5101": "猜", "5102": "猝", "5103": "猢", "5104": "猥", "5105": "猧", "5106": "猨", "5107": "猩", "5108": "猪", "5109": "猫", "5110": "猬", "5111": "猭", "5112": "献", "5113": "猰", "5114": "猱", "5115": "猲", "5116": "猳", "5117": "猴", "5118": "猵", "5119": "猷", "5120": "猺", "5121": "猾", "5122": "猿", "5123": "獌", "5124": "獍", "5125": "獐", "5126": "獑", "5127": "獒", "5128": "獗", "5129": "獚", "5130": "獝", "5131": "獠", "5132": "獢", "5133": "獦", "5134": "獧", "5135": "獬", "5136": "獭", "5137": "獯", "5138": "獳", "5139": "獾", "5140": "玃", "5141": "玄", "5142": "玆", "5143": "率", "5144": "玈", "5145": "玉", "5146": "玊", "5147": "王", "5148": "玎", "5149": "玑", "5150": "玒", "5151": "玓", "5152": "玕", "5153": "玖", "5154": "玗", "5155": "玘", "5156": "玙", "5157": "玛", "5158": "玞", "5159": "玠", "5160": "玡", "5161": "玢", "5162": "玦", "5163": "玨", "5164": "玩", "5165": "玫", "5166": "玭", "5167": "玮", "5168": "环", "5169": "现", "5170": "玱", "5171": "玲", "5172": "玳", "5173": "玷", "5174": "玸", "5175": "玺", "5176": "玻", "5177": "玼", "5178": "玾", "5179": "玿", "5180": "珀", "5181": "珂", "5182": "珃", "5183": "珇", "5184": "珈", "5185": "珉", "5186": "珊", "5187": "珌", "5188": "珍", "5189": "珎", "5190": "珏", "5191": "珑", "5192": "珓", "5193": "珙", "5194": "珝", "5195": "珞", "5196": "珠", "5197": "珣", "5198": "珥", "5199": "珦", "5200": "珧", "5201": "珩", "5202": "珪", "5203": "珫", "5204": "班", "5205": "珮", "5206": "珰", "5207": "珵", "5208": "珷", "5209": "珹", "5210": "珽", "5211": "琁", "5212": "球", "5213": "琅", "5214": "理", "5215": "琇", "5216": "琉", "5217": "琊", "5218": "琎", "5219": "琏", "5220": "琐", "5221": "琖", "5222": "琚", "5223": "琛", "5224": "琡", "5225": "琢", "5226": "琤", "5227": "琥", "5228": "琦", "5229": "琧", "5230": "琨", "5231": "琪", "5232": "琫", "5233": "琬", "5234": "琭", "5235": "琮", "5236": "琯", "5237": "琰", "5238": "琲", "5239": "琳", "5240": "琴", "5241": "琵", "5242": "琶", "5243": "琹", "5244": "琼", "5245": "瑀", "5246": "瑁", "5247": "瑃", "5248": "瑄", "5249": "瑇", "5250": "瑉", "5251": "瑊", "5252": "瑎", "5253": "瑑", "5254": "瑕", "5255": "瑗", "5256": "瑘", "5257": "瑙", "5258": "瑚", "5259": "瑛", "5260": "瑜", "5261": "瑝", "5262": "瑞", "5263": "瑟", "5264": "瑠", "5265": "瑢", "5266": "瑨", "5267": "瑫", "5268": "瑭", "5269": "瑮", "5270": "瑯", "5271": "瑰", "5272": "瑱", "5273": "瑳", "5274": "瑴", "5275": "瑶", "5276": "瑷", "5277": "瑸", "5278": "瑹", "5279": "瑺", "5280": "瑾", "5281": "瑿", "5282": "璀", "5283": "璁", "5284": "璃", "5285": "璅", "5286": "璆", "5287": "璇", "5288": "璈", "5289": "璋", "5290": "璎", "5291": "璐", "5292": "璘", "5293": "璙", "5294": "璚", "5295": "璜", "5296": "璞", "5297": "璟", "5298": "璠", "5299": "璧", "5300": "璨", "5301": "璩", "5302": "璪", "5303": "璲", "5304": "璹", "5305": "璺", "5306": "瓀", "5307": "瓈", "5308": "瓉", "5309": "瓌", "5310": "瓒", "5311": "瓓", "5312": "瓖", "5313": "瓘", "5314": "瓜", "5315": "瓝", "5316": "瓞", "5317": "瓟", "5318": "瓠", "5319": "瓢", "5320": "瓣", "5321": "瓤", "5322": "瓦", "5323": "瓬", "5324": "瓮", "5325": "瓯", "5326": "瓴", "5327": "瓶", "5328": "瓷", "5329": "瓻", "5330": "瓿", "5331": "甃", "5332": "甄", "5333": "甆", "5334": "甈", "5335": "甋", "5336": "甍", "5337": "甎", "5338": "甑", "5339": "甒", "5340": "甓", "5341": "甔", "5342": "甖", "5343": "甗", "5344": "甘", "5345": "甚", "5346": "甜", "5347": "甞", "5348": "生", "5349": "甡", "5350": "甤", "5351": "甥", "5352": "用", "5353": "甪", "5354": "甫", "5355": "甬", "5356": "田", "5357": "由", "5358": "甲", "5359": "申", "5360": "电", "5361": "男", "5362": "甸", "5363": "甹", "5364": "町", "5365": "画", "5366": "甽", "5367": "甾", "5368": "甿", "5369": "畀", "5370": "畅", "5371": "畆", "5372": "畇", "5373": "畈", "5374": "畊", "5375": "畋", "5376": "界", "5377": "畎", "5378": "畏", "5379": "畐", "5380": "畔", "5381": "留", "5382": "畚", "5383": "畛", "5384": "畜", "5385": "畞", "5386": "畡", "5387": "畤", "5388": "略", "5389": "畦", "5390": "畧", "5391": "番", "5392": "畬", "5393": "畮", "5394": "畯", "5395": "畴", "5396": "畷", "5397": "畸", "5398": "畹", "5399": "畽", "5400": "畿", "5401": "疁", "5402": "疃", "5403": "疄", "5404": "疆", "5405": "疈", "5406": "疉", "5407": "疋", "5408": "疎", "5409": "疏", "5410": "疐", "5411": "疑", "5412": "疒", "5413": "疖", "5414": "疗", "5415": "疚", "5416": "疟", "5417": "疠", "5418": "疡", "5419": "疢", "5420": "疣", "5421": "疥", "5422": "疪", "5423": "疫", "5424": "疮", "5425": "疱", "5426": "疲", "5427": "疳", "5428": "疴", "5429": "疵", "5430": "疷", "5431": "疹", "5432": "疻", "5433": "疼", "5434": "疽", "5435": "疾", "5436": "疿", "5437": "痀", "5438": "痁", "5439": "痂", "5440": "病", "5441": "痆", "5442": "症", "5443": "痈", "5444": "痉", "5445": "痊", "5446": "痌", "5447": "痍", "5448": "痎", "5449": "痏", "5450": "痑", "5451": "痒", "5452": "痔", "5453": "痕", "5454": "痖", "5455": "痗", "5456": "痛", "5457": "痞", "5458": "痟", "5459": "痡", "5460": "痢", "5461": "痤", "5462": "痦", "5463": "痩", "5464": "痫", "5465": "痬", "5466": "痯", "5467": "痰", "5468": "痱", "5469": "痴", "5470": "痹", "5471": "痺", "5472": "痼", "5473": "痿", "5474": "瘀", "5475": "瘁", "5476": "瘃", "5477": "瘅", "5478": "瘆", "5479": "瘇", "5480": "瘈", "5481": "瘉", "5482": "瘏", "5483": "瘐", "5484": "瘕", "5485": "瘖", "5486": "瘗", "5487": "瘘", "5488": "瘙", "5489": "瘝", "5490": "瘟", "5491": "瘠", "5492": "瘢", "5493": "瘣", "5494": "瘤", "5495": "瘥", "5496": "瘦", "5497": "瘨", "5498": "瘯", "5499": "瘳", "5500": "瘴", "5501": "瘵", "5502": "瘼", "5503": "瘽", "5504": "瘿", "5505": "癃", "5506": "癊", "5507": "癏", "5508": "癕", "5509": "癖", "5510": "癗", "5511": "癙", "5512": "癞", "5513": "癠", "5514": "癣", "5515": "癫", "5516": "癯", "5517": "癸", "5518": "登", "5519": "白", "5520": "百", "5521": "癿", "5522": "皂", "5523": "的", "5524": "皆", "5525": "皇", "5526": "皈", "5527": "皋", "5528": "皎", "5529": "皐", "5530": "皑", "5531": "皓", "5532": "皖", "5533": "皙", "5534": "皛", "5535": "皜", "5536": "皞", "5537": "皠", "5538": "皡", "5539": "皤", "5540": "皥", "5541": "皦", "5542": "皪", "5543": "皭", "5544": "皮", "5545": "皱", "5546": "皲", "5547": "皴", "5548": "皵", "5549": "皷", "5550": "皿", "5551": "盂", "5552": "盆", "5553": "盈", "5554": "益", "5555": "盌", "5556": "盍", "5557": "盎", "5558": "盏", "5559": "盐", "5560": "监", "5561": "盖", "5562": "盗", "5563": "盘", "5564": "盛", "5565": "盝", "5566": "盟", "5567": "盥", "5568": "盦", "5569": "盩", "5570": "盬", "5571": "盭", "5572": "目", "5573": "盯", "5574": "盰", "5575": "盱", "5576": "盲", "5577": "盳", "5578": "直", "5579": "相", "5580": "盺", "5581": "盻", "5582": "盼", "5583": "盾", "5584": "眀", "5585": "省", "5586": "眂", "5587": "眄", "5588": "眇", "5589": "眈", "5590": "眉", "5591": "眊", "5592": "看", "5593": "眎", "5594": "眒", "5595": "眕", "5596": "眘", "5597": "眙", "5598": "眚", "5599": "真", "5600": "眠", "5601": "眡", "5602": "眢", "5603": "眤", "5604": "眦", "5605": "眧", "5606": "眨", "5607": "眩", "5608": "眬", "5609": "眯", "5610": "眴", "5611": "眵", "5612": "眶", "5613": "眷", "5614": "眸", "5615": "眹", "5616": "眺", "5617": "眼", "5618": "眽", "5619": "着", "5620": "睁", "5621": "睂", "5622": "睅", "5623": "睆", "5624": "睇", "5625": "睋", "5626": "睎", "5627": "睐", "5628": "睑", "5629": "睒", "5630": "睖", "5631": "睗", "5632": "睘", "5633": "睚", "5634": "睛", "5635": "睟", "5636": "睠", "5637": "睡", "5638": "睢", "5639": "督", "5640": "睥", "5641": "睦", "5642": "睨", "5643": "睩", "5644": "睪", "5645": "睫", "5646": "睬", "5647": "睹", "5648": "睺", "5649": "睽", "5650": "睿", "5651": "瞀", "5652": "瞆", "5653": "瞇", "5654": "瞋", "5655": "瞌", "5656": "瞍", "5657": "瞎", "5658": "瞑", "5659": "瞒", "5660": "瞖", "5661": "瞙", "5662": "瞠", "5663": "瞢", "5664": "瞥", "5665": "瞩", "5666": "瞪", "5667": "瞬", "5668": "瞭", "5669": "瞯", "5670": "瞰", "5671": "瞳", "5672": "瞷", "5673": "瞹", "5674": "瞻", "5675": "瞽", "5676": "瞿", "5677": "矂", "5678": "矄", "5679": "矌", "5680": "矍", "5681": "矐", "5682": "矒", "5683": "矕", "5684": "矗", "5685": "矙", "5686": "矛", "5687": "矜", "5688": "矞", "5689": "矟", "5690": "矢", "5691": "矣", "5692": "知", "5693": "矧", "5694": "矩", "5695": "矫", "5696": "矬", "5697": "短", "5698": "矮", "5699": "矰", "5700": "矱", "5701": "石", "5702": "矴", "5703": "矶", "5704": "矸", "5705": "矹", "5706": "矻", "5707": "矼", "5708": "矾", "5709": "矿", "5710": "砀", "5711": "码", "5712": "砂", "5713": "砅", "5714": "砆", "5715": "砉", "5716": "砌", "5717": "砍", "5718": "砐", "5719": "砑", "5720": "砒", "5721": "研", "5722": "砕", "5723": "砖", "5724": "砗", "5725": "砚", "5726": "砟", "5727": "砠", "5728": "砢", "5729": "砣", "5730": "砥", "5731": "砦", "5732": "砧", "5733": "砭", "5734": "砮", "5735": "砯", "5736": "砰", "5737": "砲", "5738": "砳", "5739": "破", "5740": "砺", "5741": "砻", "5742": "砾", "5743": "础", "5744": "硁", "5745": "硉", "5746": "硊", "5747": "硌", "5748": "硎", "5749": "硏", "5750": "硐", "5751": "硔", "5752": "硕", "5753": "硖", "5754": "硗", "5755": "硙", "5756": "硝", "5757": "硞", "5758": "硠", "5759": "硩", "5760": "硪", "5761": "硫", "5762": "硬", "5763": "确", "5764": "硱", "5765": "硼", "5766": "硾", "5767": "硿", "5768": "碁", "5769": "碆", "5770": "碇", "5771": "碉", "5772": "碌", "5773": "碍", "5774": "碎", "5775": "碏", "5776": "碐", "5777": "碑", "5778": "碓", "5779": "碔", "5780": "碖", "5781": "碗", "5782": "碚", "5783": "碛", "5784": "碜", "5785": "碞", "5786": "碡", "5787": "碣", "5788": "碧", "5789": "碨", "5790": "碪", "5791": "碯", "5792": "碱", "5793": "碶", "5794": "碾", "5795": "磁", "5796": "磅", "5797": "磈", "5798": "磉", "5799": "磊", "5800": "磋", "5801": "磎", "5802": "磐", "5803": "磓", "5804": "磔", "5805": "磕", "5806": "磗", "5807": "磜", "5808": "磝", "5809": "磡", "5810": "磢", "5811": "磤", "5812": "磥", "5813": "磨", "5814": "磩", "5815": "磬", "5816": "磭", "5817": "磲", "5818": "磳", "5819": "磴", "5820": "磵", "5821": "磶", "5822": "磷", "5823": "磹", "5824": "磺", "5825": "磻", "5826": "礀", "5827": "礁", "5828": "礉", "5829": "礊", "5830": "礌", "5831": "礓", "5832": "礚", "5833": "礛", "5834": "礜", "5835": "礡", "5836": "礧", "5837": "礨", "5838": "礭", "5839": "礲", "5840": "礴", "5841": "示", "5842": "礼", "5843": "礽", "5844": "社", "5845": "礿", "5846": "祀", "5847": "祁", "5848": "祃", "5849": "祅", "5850": "祆", "5851": "祇", "5852": "祈", "5853": "祉", "5854": "祊", "5855": "祋", "5856": "祎", "5857": "祏", "5858": "祐", "5859": "祓", "5860": "祔", "5861": "祖", "5862": "祗", "5863": "祚", "5864": "祛", "5865": "祜", "5866": "祝", "5867": "神", "5868": "祟", "5869": "祠", "5870": "祢", "5871": "祥", "5872": "祧", "5873": "票", "5874": "祫", "5875": "祭", "5876": "祯", "5877": "祲", "5878": "祴", "5879": "祶", "5880": "祷", "5881": "祸", "5882": "祺", "5883": "祼", "5884": "禀", "5885": "禁", "5886": "禂", "5887": "禄", "5888": "禅", "5889": "禆", "5890": "禇", "5891": "禈", "5892": "禊", "5893": "禋", "5894": "福", "5895": "禔", "5896": "禖", "5897": "禘", "5898": "禜", "5899": "禠", "5900": "禧", "5901": "禨", "5902": "禩", "5903": "禫", "5904": "禬", "5905": "禭", "5906": "禳", "5907": "禴", "5908": "禹", "5909": "禺", "5910": "离", "5911": "禼", "5912": "禽", "5913": "禾", "5914": "秀", "5915": "私", "5916": "秃", "5917": "秅", "5918": "秆", "5919": "秉", "5920": "秋", "5921": "种", "5922": "科", "5923": "秒", "5924": "秔", "5925": "秕", "5926": "秖", "5927": "秘", "5928": "租", "5929": "秠", "5930": "秣", "5931": "秤", "5932": "秦", "5933": "秧", "5934": "秩", "5935": "秪", "5936": "秫", "5937": "秬", "5938": "秭", "5939": "积", "5940": "称", "5941": "秳", "5942": "秷", "5943": "秸", "5944": "移", "5945": "秽", "5946": "秾", "5947": "稀", "5948": "稂", "5949": "稃", "5950": "稆", "5951": "稇", "5952": "稉", "5953": "稊", "5954": "程", "5955": "稌", "5956": "稍", "5957": "税", "5958": "稑", "5959": "稔", "5960": "稗", "5961": "稙", "5962": "稚", "5963": "稛", "5964": "稠", "5965": "稡", "5966": "稢", "5967": "稣", "5968": "稬", "5969": "稭", "5970": "稲", "5971": "稳", "5972": "稷", "5973": "稸", "5974": "稹", "5975": "稺", "5976": "稻", "5977": "稼", "5978": "稽", "5979": "稾", "5980": "稿", "5981": "穂", "5982": "穄", "5983": "穅", "5984": "穆", "5985": "穈", "5986": "穉", "5987": "穊", "5988": "穏", "5989": "穑", "5990": "穗", "5991": "穜", "5992": "穞", "5993": "穟", "5994": "穤", "5995": "穥", "5996": "穧", "5997": "穨", "5998": "穮", "5999": "穯", "6000": "穰", "6001": "穱", "6002": "穴", "6003": "究", "6004": "穷", "6005": "穸", "6006": "穹", "6007": "空", "6008": "穽", "6009": "穾", "6010": "穿", "6011": "窀", "6012": "突", "6013": "窂", "6014": "窃", "6015": "窄", "6016": "窅", "6017": "窆", "6018": "窈", "6019": "窊", "6020": "窋", "6021": "窌", "6022": "窍", "6023": "窎", "6024": "窐", "6025": "窑", "6026": "窒", "6027": "窓", "6028": "窔", "6029": "窕", "6030": "窖", "6031": "窗", "6032": "窘", "6033": "窙", "6034": "窜", "6035": "窝", "6036": "窞", "6037": "窟", "6038": "窠", "6039": "窡", "6040": "窣", "6041": "窥", "6042": "窦", "6043": "窨", "6044": "窫", "6045": "窬", "6046": "窭", "6047": "窰", "6048": "窱", "6049": "窳", "6050": "窴", "6051": "窸", "6052": "窻", "6053": "窼", "6054": "窽", "6055": "窾", "6056": "窿", "6057": "竁", "6058": "竂", "6059": "竃", "6060": "竆", "6061": "立", "6062": "竑", "6063": "竖", "6064": "竘", "6065": "站", "6066": "竛", "6067": "竝", "6068": "竞", "6069": "竟", "6070": "章", "6071": "竢", "6072": "竣", "6073": "童", "6074": "竦", "6075": "竭", "6076": "竮", "6077": "端", "6078": "竹", "6079": "竺", "6080": "竽", "6081": "竿", "6082": "笁", "6083": "笃", "6084": "笄", "6085": "笆", "6086": "笇", "6087": "笈", "6088": "笊", "6089": "笋", "6090": "笏", "6091": "笐", "6092": "笑", "6093": "笓", "6094": "笔", "6095": "笕", "6096": "笙", "6097": "笛", "6098": "笞", "6099": "笠", "6100": "笥", "6101": "符", "6102": "笨", "6103": "笪", "6104": "笫", "6105": "第", "6106": "笭", "6107": "笮", "6108": "笯", "6109": "笱", "6110": "笳", "6111": "笴", "6112": "笺", "6113": "笻", "6114": "笼", "6115": "笾", "6116": "筀", "6117": "筁", "6118": "筇", "6119": "筈", "6120": "等", "6121": "筊", "6122": "筋", "6123": "筌", "6124": "筏", "6125": "筐", "6126": "筑", "6127": "筒", "6128": "筓", "6129": "答", "6130": "筕", "6131": "策", "6132": "筚", "6133": "筛", "6134": "筜", "6135": "筝", "6136": "筞", "6137": "筠", "6138": "筣", "6139": "筤", "6140": "筥", "6141": "筦", "6142": "筩", "6143": "筭", "6144": "筮", "6145": "筯", "6146": "筰", "6147": "筲", "6148": "筳", "6149": "筵", "6150": "筹", "6151": "筼", "6152": "签", "6153": "筿", "6154": "简", "6155": "箄", "6156": "箅", "6157": "箆", "6158": "箊", "6159": "箍", "6160": "箎", "6161": "箐", "6162": "箑", "6163": "箒", "6164": "箓", "6165": "箔", "6166": "箕", "6167": "算", "6168": "箘", "6169": "箙", "6170": "箜", "6171": "箝", "6172": "箠", "6173": "管", "6174": "箦", "6175": "箧", "6176": "箨", "6177": "箩", "6178": "箪", "6179": "箫", "6180": "箬", "6181": "箭", "6182": "箯", "6183": "箱", "6184": "箳", "6185": "箴", "6186": "箵", "6187": "箸", "6188": "箾", "6189": "篁", "6190": "篂", "6191": "篅", "6192": "篆", "6193": "篇", "6194": "篌", "6195": "篑", "6196": "篓", "6197": "篖", "6198": "篗", "6199": "篙", "6200": "篚", "6201": "篛", "6202": "篝", "6203": "篡", "6204": "篣", "6205": "篥", "6206": "篦", "6207": "篨", "6208": "篪", "6209": "篬", "6210": "篮", "6211": "篯", "6212": "篰", "6213": "篱", "6214": "篲", "6215": "篴", "6216": "篷", "6217": "篹", "6218": "篾", "6219": "篿", "6220": "簁", "6221": "簃", "6222": "簄", "6223": "簇", "6224": "簉", "6225": "簋", "6226": "簌", "6227": "簎", "6228": "簏", "6229": "簒", "6230": "簔", "6231": "簖", "6232": "簜", "6233": "簟", "6234": "簠", "6235": "簦", "6236": "簧", "6237": "簨", "6238": "簩", "6239": "簪", "6240": "簮", "6241": "簰", "6242": "簳", "6243": "簴", "6244": "簵", "6245": "簷", "6246": "簸", "6247": "簺", "6248": "簿", "6249": "籀", "6250": "籁", "6251": "籉", "6252": "籊", "6253": "籍", "6254": "籐", "6255": "籑", "6256": "籓", "6257": "籕", "6258": "籖", "6259": "籝", "6260": "籞", "6261": "籢", "6262": "籥", "6263": "籦", "6264": "籧", "6265": "籨", "6266": "籫", "6267": "籭", "6268": "籯", "6269": "籰", "6270": "米", "6271": "籴", "6272": "籸", "6273": "籹", "6274": "籺", "6275": "类", "6276": "籼", "6277": "籽", "6278": "粃", "6279": "粇", "6280": "粉", "6281": "粒", "6282": "粔", "6283": "粕", "6284": "粗", "6285": "粘", "6286": "粜", "6287": "粝", "6288": "粞", "6289": "粟", "6290": "粢", "6291": "粣", "6292": "粤", "6293": "粥", "6294": "粦", "6295": "粧", "6296": "粪", "6297": "粮", "6298": "粱", "6299": "粲", "6300": "粳", "6301": "粹", "6302": "粺", "6303": "粻", "6304": "粼", "6305": "粽", "6306": "精", "6307": "糁", "6308": "糅", "6309": "糇", "6310": "糈", "6311": "糊", "6312": "糍", "6313": "糒", "6314": "糓", "6315": "糕", "6316": "糖", "6317": "糗", "6318": "糙", "6319": "糜", "6320": "糟", "6321": "糠", "6322": "糢", "6323": "糦", "6324": "糩", "6325": "糪", "6326": "糭", "6327": "糯", "6328": "糱", "6329": "糳", "6330": "糵", "6331": "糸", "6332": "系", "6333": "紊", "6334": "紏", "6335": "紒", "6336": "素", "6337": "索", "6338": "紧", "6339": "紩", "6340": "紫", "6341": "紭", "6342": "累", "6343": "紽", "6344": "紾", "6345": "絇", "6346": "絏", "6347": "絓", "6348": "絖", "6349": "絚", "6350": "絜", "6351": "絣", "6352": "絫", "6353": "絭", "6354": "絮", "6355": "絷", "6356": "絸", "6357": "絿", "6358": "綅", "6359": "綍", "6360": "綘", "6361": "綛", "6362": "綦", "6363": "綮", "6364": "綷", "6365": "緉", "6366": "緌", "6367": "緎", "6368": "緐", "6369": "緜", "6370": "緪", "6371": "緫", "6372": "緵", "6373": "緺", "6374": "縁", "6375": "縆", "6376": "縌", "6377": "縚", "6378": "縠", "6379": "縡", "6380": "縢", "6381": "縦", "6382": "縩", "6383": "縻", "6384": "縿", "6385": "繁", "6386": "繄", "6387": "繇", "6388": "繋", "6389": "繍", "6390": "繖", "6391": "繘", "6392": "繙", "6393": "繣", "6394": "纂", "6395": "纉", "6396": "纎", "6397": "纑", "6398": "纒", "6399": "纛", "6400": "纟", "6401": "纠", "6402": "纡", "6403": "红", "6404": "纣", "6405": "纤", "6406": "纥", "6407": "约", "6408": "级", "6409": "纨", "6410": "纩", "6411": "纪", "6412": "纫", "6413": "纬", "6414": "纭", "6415": "纮", "6416": "纯", "6417": "纰", "6418": "纱", "6419": "纲", "6420": "纳", "6421": "纴", "6422": "纵", "6423": "纶", "6424": "纷", "6425": "纸", "6426": "纹", "6427": "纺", "6428": "纻", "6429": "纼", "6430": "纽", "6431": "纾", "6432": "线", "6433": "绀", "6434": "绁", "6435": "绂", "6436": "练", "6437": "组", "6438": "绅", "6439": "细", "6440": "织", "6441": "终", "6442": "绉", "6443": "绊", "6444": "绋", "6445": "绌", "6446": "绍", "6447": "绎", "6448": "经", "6449": "绐", "6450": "绒", "6451": "结", "6452": "绔", "6453": "绕", "6454": "绖", "6455": "绘", "6456": "给", "6457": "绚", "6458": "绛", "6459": "络", "6460": "绝", "6461": "绞", "6462": "统", "6463": "绠", "6464": "绡", "6465": "绢", "6466": "绣", "6467": "绤", "6468": "绥", "6469": "绦", "6470": "继", "6471": "绨", "6472": "绩", "6473": "绪", "6474": "绫", "6475": "续", "6476": "绮", "6477": "绯", "6478": "绰", "6479": "绳", "6480": "维", "6481": "绵", "6482": "绶", "6483": "绷", "6484": "绸", "6485": "绹", "6486": "绻", "6487": "综", "6488": "绽", "6489": "绾", "6490": "绿", "6491": "缀", "6492": "缁", "6493": "缃", "6494": "缄", "6495": "缅", "6496": "缆", "6497": "缇", "6498": "缈", "6499": "缉", "6500": "缊", "6501": "缋", "6502": "缌", "6503": "缎", "6504": "缏", "6505": "缐", "6506": "缑", "6507": "缒", "6508": "缓", "6509": "缔", "6510": "缕", "6511": "编", "6512": "缗", "6513": "缘", "6514": "缙", "6515": "缚", "6516": "缛", "6517": "缜", "6518": "缝", "6519": "缞", "6520": "缟", "6521": "缠", "6522": "缡", "6523": "缢", "6524": "缣", "6525": "缤", "6526": "缥", "6527": "缦", "6528": "缧", "6529": "缨", "6530": "缩", "6531": "缪", "6532": "缫", "6533": "缬", "6534": "缭", "6535": "缮", "6536": "缯", "6537": "缰", "6538": "缱", "6539": "缲", "6540": "缴", "6541": "缵", "6542": "缶", "6543": "缷", "6544": "缸", "6545": "缺", "6546": "缻", "6547": "缾", "6548": "缿", "6549": "罂", "6550": "罄", "6551": "罅", "6552": "罇", "6553": "罋", "6554": "罍", "6555": "罏", "6556": "罐", "6557": "网", "6558": "罒", "6559": "罓", "6560": "罔", "6561": "罕", "6562": "罗", "6563": "罘", "6564": "罙", "6565": "罚", "6566": "罛", "6567": "罜", "6568": "罝", "6569": "罟", "6570": "罡", "6571": "罢", "6572": "罣", "6573": "罤", "6574": "罥", "6575": "罦", "6576": "罧", "6577": "罨", "6578": "罩", "6579": "罪", "6580": "罫", "6581": "置", "6582": "罯", "6583": "署", "6584": "罳", "6585": "罴", "6586": "罶", "6587": "罸", "6588": "罹", "6589": "罻", "6590": "罼", "6591": "罽", "6592": "罾", "6593": "罿", "6594": "羁", "6595": "羃", "6596": "羇", "6597": "羉", "6598": "羊", "6599": "羌", "6600": "美", "6601": "羑", "6602": "羓", "6603": "羔", "6604": "羖", "6605": "羗", "6606": "羙", "6607": "羚", "6608": "羜", "6609": "羝", "6610": "羞", "6611": "羡", "6612": "羢", "6613": "群", "6614": "羫", "6615": "羭", "6616": "羮", "6617": "羯", "6618": "羱", "6619": "羲", "6620": "羸", "6621": "羹", "6622": "羺", "6623": "羼", "6624": "羽", "6625": "羾", "6626": "羿", "6627": "翀", "6628": "翁", "6629": "翂", "6630": "翃", "6631": "翅", "6632": "翇", "6633": "翊", "6634": "翌", "6635": "翍", "6636": "翎", "6637": "翏", "6638": "翐", "6639": "翔", "6640": "翕", "6641": "翘", "6642": "翙", "6643": "翚", "6644": "翛", "6645": "翟", "6646": "翠", "6647": "翡", "6648": "翣", "6649": "翥", "6650": "翦", "6651": "翩", "6652": "翮", "6653": "翯", "6654": "翰", "6655": "翱", "6656": "翲", "6657": "翳", "6658": "翶", "6659": "翺", "6660": "翻", "6661": "翼", "6662": "翾", "6663": "翿", "6664": "耀", "6665": "老", "6666": "考", "6667": "耄", "6668": "者", "6669": "耆", "6670": "耇", "6671": "耈", "6672": "耉", "6673": "耋", "6674": "而", "6675": "耍", "6676": "耎", "6677": "耐", "6678": "耑", "6679": "耒", "6680": "耔", "6681": "耕", "6682": "耖", "6683": "耗", "6684": "耘", "6685": "耙", "6686": "耛", "6687": "耜", "6688": "耝", "6689": "耞", "6690": "耡", "6691": "耤", "6692": "耦", "6693": "耧", "6694": "耨", "6695": "耩", "6696": "耰", "6697": "耳", "6698": "耴", "6699": "耶", "6700": "耸", "6701": "耻", "6702": "耼", "6703": "耽", "6704": "耿", "6705": "聂", "6706": "聃", "6707": "聆", "6708": "聊", "6709": "聋", "6710": "职", "6711": "聒", "6712": "联", "6713": "聘", "6714": "聚", "6715": "聣", "6716": "聦", "6717": "聧", "6718": "聨", "6719": "聩", "6720": "聪", "6721": "聫", "6722": "聮", "6723": "聱", "6724": "聴", "6725": "聼", "6726": "聿", "6727": "肃", "6728": "肄", "6729": "肆", "6730": "肇", "6731": "肉", "6732": "肋", "6733": "肌", "6734": "肎", "6735": "肏", "6736": "肐", "6737": "肓", "6738": "肕", "6739": "肖", "6740": "肘", "6741": "肚", "6742": "肛", "6743": "肝", "6744": "肠", "6745": "股", "6746": "肢", "6747": "肣", "6748": "肤", "6749": "肥", "6750": "肦", "6751": "肧", "6752": "肩", "6753": "肪", "6754": "肫", "6755": "肬", "6756": "肭", "6757": "肮", "6758": "肯", "6759": "肱", "6760": "育", "6761": "肴", "6762": "肶", "6763": "肸", "6764": "肹", "6765": "肺", "6766": "肻", "6767": "肾", "6768": "肿", "6769": "胀", "6770": "胁", "6771": "胃", "6772": "胄", "6773": "胅", "6774": "胆", "6775": "胈", "6776": "背", "6777": "胍", "6778": "胎", "6779": "胏", "6780": "胐", "6781": "胔", "6782": "胕", "6783": "胖", "6784": "胗", "6785": "胘", "6786": "胙", "6787": "胚", "6788": "胛", "6789": "胜", "6790": "胝", "6791": "胞", "6792": "胠", "6793": "胡", "6794": "胤", "6795": "胥", "6796": "胧", "6797": "胨", "6798": "胪", "6799": "胫", "6800": "胭", "6801": "胮", "6802": "胯", "6803": "胱", "6804": "胲", "6805": "胶", "6806": "胷", "6807": "胸", "6808": "胹", "6809": "胼", "6810": "能", "6811": "胾", "6812": "脁", "6813": "脂", "6814": "脃", "6815": "脆", "6816": "脇", "6817": "脉", "6818": "脊", "6819": "脋", "6820": "脍", "6821": "脏", "6822": "脐", "6823": "脑", "6824": "脓", "6825": "脔", "6826": "脕", "6827": "脗", "6828": "脘", "6829": "脚", "6830": "脝", "6831": "脞", "6832": "脢", "6833": "脤", "6834": "脧", "6835": "脬", "6836": "脯", "6837": "脰", "6838": "脱", "6839": "脸", "6840": "脽", "6841": "脾", "6842": "腆", "6843": "腇", "6844": "腊", "6845": "腋", "6846": "腌", "6847": "腏", "6848": "腐", "6849": "腑", "6850": "腒", "6851": "腓", "6852": "腔", "6853": "腕", "6854": "腗", "6855": "腠", "6856": "腤", "6857": "腥", "6858": "腨", "6859": "腭", "6860": "腮", "6861": "腯", "6862": "腰", "6863": "腱", "6864": "腲", "6865": "腴", "6866": "腶", "6867": "腷", "6868": "腹", "6869": "腻", "6870": "腼", "6871": "腽", "6872": "腾", "6873": "腿", "6874": "膀", "6875": "膁", "6876": "膂", "6877": "膆", "6878": "膇", "6879": "膈", "6880": "膊", "6881": "膋", "6882": "膏", "6883": "膑", "6884": "膓", "6885": "膘", "6886": "膜", "6887": "膝", "6888": "膟", "6889": "膡", "6890": "膦", "6891": "膨", "6892": "膰", "6893": "膳", "6894": "膴", "6895": "膸", "6896": "膺", "6897": "膻", "6898": "臀", "6899": "臂", "6900": "臃", "6901": "臄", "6902": "臅", "6903": "臆", "6904": "臈", "6905": "臊", "6906": "臐", "6907": "臑", "6908": "臒", "6909": "臕", "6910": "臙", "6911": "臛", "6912": "臝", "6913": "臞", "6914": "臡", "6915": "臣", "6916": "臧", "6917": "自", "6918": "臬", "6919": "臭", "6920": "臮", "6921": "臯", "6922": "臲", "6923": "至", "6924": "致", "6925": "臻", "6926": "臼", "6927": "臾", "6928": "臿", "6929": "舀", "6930": "舁", "6931": "舂", "6932": "舃", "6933": "舄", "6934": "舅", "6935": "舆", "6936": "舋", "6937": "舌", "6938": "舍", "6939": "舎", "6940": "舐", "6941": "舒", "6942": "舖", "6943": "舚", "6944": "舛", "6945": "舜", "6946": "舞", "6947": "舟", "6948": "舠", "6949": "舡", "6950": "舣", "6951": "舥", "6952": "舩", "6953": "航", "6954": "舫", "6955": "般", "6956": "舰", "6957": "舱", "6958": "舲", "6959": "舳", "6960": "舴", "6961": "舵", "6962": "舶", "6963": "舷", "6964": "舸", "6965": "船", "6966": "舻", "6967": "舼", "6968": "舽", "6969": "艂", "6970": "艄", "6971": "艅", "6972": "艇", "6973": "艋", "6974": "艎", "6975": "艐", "6976": "艑", "6977": "艓", "6978": "艕", "6979": "艖", "6980": "艗", "6981": "艘", "6982": "艚", "6983": "艛", "6984": "艟", "6985": "艨", "6986": "艪", "6987": "艬", "6988": "艭", "6989": "艮", "6990": "良", "6991": "艰", "6992": "色", "6993": "艳", "6994": "艴", "6995": "艶", "6996": "艸", "6997": "艹", "6998": "艺", "6999": "艼", "7000": "艽", "7001": "艾", "7002": "艿", "7003": "芀", "7004": "节", "7005": "芃", "7006": "芄", "7007": "芈", "7008": "芉", "7009": "芊", "7010": "芋", "7011": "芍", "7012": "芎", "7013": "芑", "7014": "芒", "7015": "芓", "7016": "芗", "7017": "芘", "7018": "芙", "7019": "芚", "7020": "芜", "7021": "芝", "7022": "芟", "7023": "芡", "7024": "芣", "7025": "芥", "7026": "芦", "7027": "芧", "7028": "芨", "7029": "芩", "7030": "芫", "7031": "芬", "7032": "芭", "7033": "芮", "7034": "芰", "7035": "花", "7036": "芳", "7037": "芴", "7038": "芷", "7039": "芸", "7040": "芹", "7041": "芼", "7042": "芽", "7043": "芾", "7044": "芿", "7045": "苁", "7046": "苃", "7047": "苇", "7048": "苈", "7049": "苋", "7050": "苌", "7051": "苍", "7052": "苎", "7053": "苏", "7054": "苐", "7055": "苑", "7056": "苒", "7057": "苓", "7058": "苔", "7059": "苕", "7060": "苖", "7061": "苗", "7062": "苙", "7063": "苛", "7064": "苜", "7065": "苞", "7066": "苟", "7067": "苡", "7068": "苢", "7069": "苣", "7070": "若", "7071": "苦", "7072": "苨", "7073": "苫", "7074": "苮", "7075": "苯", "7076": "英", "7077": "苴", "7078": "苶", "7079": "苷", "7080": "苹", "7081": "苻", "7082": "苽", "7083": "苾", "7084": "茀", "7085": "茁", "7086": "茂", "7087": "范", "7088": "茄", "7089": "茅", "7090": "茆", "7091": "茇", "7092": "茈", "7093": "茉", "7094": "茌", "7095": "茍", "7096": "茎", "7097": "茏", "7098": "茑", "7099": "茒", "7100": "茔", "7101": "茕", "7102": "茗", "7103": "茘", "7104": "茙", "7105": "茜", "7106": "茝", "7107": "茞", "7108": "茟", "7109": "茢", "7110": "茧", "7111": "茨", "7112": "茫", "7113": "茭", "7114": "茯", "7115": "茰", "7116": "茱", "7117": "茳", "7118": "茵", "7119": "茶", "7120": "茷", "7121": "茸", "7122": "茹", "7123": "茺", "7124": "荀", "7125": "荂", "7126": "荃", "7127": "荄", "7128": "荅", "7129": "荆", "7130": "荇", "7131": "荈", "7132": "草", "7133": "荍", "7134": "荏", "7135": "荐", "7136": "荑", "7137": "荒", "7138": "荓", "7139": "荔", "7140": "荖", "7141": "荘", "7142": "荚", "7143": "荛", "7144": "荜", "7145": "荞", "7146": "荟", "7147": "荠", "7148": "荡", "7149": "荣", "7150": "荤", "7151": "荥", "7152": "荦", "7153": "荧", "7154": "荩", "7155": "荪", "7156": "荫", "7157": "荬", "7158": "荭", "7159": "药", "7160": "荰", "7161": "荳", "7162": "荷", "7163": "荻", "7164": "荼", "7165": "荿", "7166": "莂", "7167": "莅", "7168": "莆", "7169": "莉", "7170": "莋", "7171": "莎", "7172": "莒", "7173": "莓", "7174": "莘", "7175": "莙", "7176": "莚", "7177": "莛", "7178": "莝", "7179": "莞", "7180": "莟", "7181": "莠", "7182": "莤", "7183": "莦", "7184": "莨", "7185": "莩", "7186": "莪", "7187": "莫", "7188": "莬", "7189": "莭", "7190": "莱", "7191": "莲", "7192": "莳", "7193": "莴", "7194": "莵", "7195": "莶", "7196": "获", "7197": "莸", "7198": "莹", "7199": "莺", "7200": "莼", "7201": "莽", "7202": "莾", "7203": "莿", "7204": "菀", "7205": "菁", "7206": "菂", "7207": "菅", "7208": "菆", "7209": "菇", "7210": "菉", "7211": "菊", "7212": "菌", "7213": "菏", "7214": "菑", "7215": "菓", "7216": "菔", "7217": "菖", "7218": "菘", "7219": "菜", "7220": "菝", "7221": "菟", "7222": "菡", "7223": "菢", "7224": "菣", "7225": "菩", "7226": "菪", "7227": "菫", "7228": "菭", "7229": "菰", "7230": "菱", "7231": "菲", "7232": "菵", "7233": "菶", "7234": "菹", "7235": "菻", "7236": "菼", "7237": "菽", "7238": "萁", "7239": "萃", "7240": "萄", "7241": "萆", "7242": "萋", "7243": "萌", "7244": "萍", "7245": "萎", "7246": "萏", "7247": "萐", "7248": "萑", "7249": "萘", "7250": "萚", "7251": "萝", "7252": "萟", "7253": "萠", "7254": "萤", "7255": "营", "7256": "萦", "7257": "萧", "7258": "萨", "7259": "萯", "7260": "萱", "7261": "萷", "7262": "萸", "7263": "萹", "7264": "萼", "7265": "落", "7266": "葅", "7267": "葆", "7268": "葈", "7269": "葑", "7270": "葓", "7271": "著", "7272": "葘", "7273": "葚", "7274": "葛", "7275": "葜", "7276": "葠", "7277": "葡", "7278": "葢", "7279": "董", "7280": "葩", "7281": "葫", "7282": "葬", "7283": "葭", "7284": "葮", "7285": "葱", "7286": "葳", "7287": "葵", "7288": "葶", "7289": "葹", "7290": "葺", "7291": "葼", "7292": "葽", "7293": "蒀", "7294": "蒂", "7295": "蒇", "7296": "蒉", "7297": "蒋", "7298": "蒌", "7299": "蒏", "7300": "蒙", "7301": "蒜", "7302": "蒟", "7303": "蒢", "7304": "蒨", "7305": "蒩", "7306": "蒪", "7307": "蒯", "7308": "蒱", "7309": "蒲", "7310": "蒶", "7311": "蒸", "7312": "蒹", "7313": "蒺", "7314": "蒻", "7315": "蒿", "7316": "蓁", "7317": "蓂", "7318": "蓄", "7319": "蓉", "7320": "蓊", "7321": "蓍", "7322": "蓏", "7323": "蓐", "7324": "蓑", "7325": "蓓", "7326": "蓖", "7327": "蓘", "7328": "蓝", "7329": "蓞", "7330": "蓟", "7331": "蓠", "7332": "蓣", "7333": "蓥", "7334": "蓦", "7335": "蓪", "7336": "蓬", "7337": "蓰", "7338": "蓱", "7339": "蓳", "7340": "蓶", "7341": "蓹", "7342": "蓺", "7343": "蓻", "7344": "蓼", "7345": "蓿", "7346": "蔀", "7347": "蔂", "7348": "蔆", "7349": "蔇", "7350": "蔉", "7351": "蔌", "7352": "蔍", "7353": "蔑", "7354": "蔓", "7355": "蔕", "7356": "蔗", "7357": "蔚", "7358": "蔟", "7359": "蔡", "7360": "蔫", "7361": "蔬", "7362": "蔲", "7363": "蔴", "7364": "蔵", "7365": "蔷", "7366": "蔹", "7367": "蔺", "7368": "蔻", "7369": "蔼", "7370": "蔽", "7371": "蔾", "7372": "蕂", "7373": "蕃", "7374": "蕈", "7375": "蕉", "7376": "蕊", "7377": "蕋", "7378": "蕐", "7379": "蕖", "7380": "蕙", "7381": "蕚", "7382": "蕞", "7383": "蕟", "7384": "蕡", "7385": "蕣", "7386": "蕤", "7387": "蕨", "7388": "蕬", "7389": "蕰", "7390": "蕲", "7391": "蕴", "7392": "蕺", "7393": "蕻", "7394": "蕾", "7395": "薁", "7396": "薄", "7397": "薅", "7398": "薇", "7399": "薉", "7400": "薋", "7401": "薍", "7402": "薏", "7403": "薐", "7404": "薖", "7405": "薙", "7406": "薚", "7407": "薛", "7408": "薜", "7409": "薝", "7410": "薤", "7411": "薧", "7412": "薨", "7413": "薪", "7414": "薫", "7415": "薮", "7416": "薯", "7417": "薰", "7418": "薱", "7419": "薶", "7420": "薸", "7421": "薾", "7422": "薿", "7423": "藁", "7424": "藂", "7425": "藇", "7426": "藉", "7427": "藋", "7428": "藏", "7429": "藐", "7430": "藑", "7431": "藓", "7432": "藕", "7433": "藖", "7434": "藙", "7435": "藜", "7436": "藞", "7437": "藟", "7438": "藤", "7439": "藨", "7440": "藩", "7441": "藫", "7442": "藳", "7443": "藻", "7444": "藾", "7445": "藿", "7446": "蘂", "7447": "蘃", "7448": "蘅", "7449": "蘐", "7450": "蘓", "7451": "蘖", "7452": "蘗", "7453": "蘘", "7454": "蘙", "7455": "蘤", "7456": "蘧", "7457": "蘩", "7458": "蘱", "7459": "蘴", "7460": "蘸", "7461": "蘼", "7462": "虀", "7463": "虈", "7464": "虋", "7465": "虎", "7466": "虏", "7467": "虐", "7468": "虑", "7469": "虒", "7470": "虓", "7471": "虔", "7472": "虖", "7473": "虗", "7474": "虙", "7475": "虚", "7476": "虞", "7477": "虡", "7478": "虢", "7479": "虣", "7480": "虤", "7481": "虥", "7482": "虦", "7483": "虩", "7484": "虫", "7485": "虬", "7486": "虮", "7487": "虱", "7488": "虵", "7489": "虸", "7490": "虹", "7491": "虺", "7492": "虻", "7493": "虽", "7494": "虾", "7495": "虿", "7496": "蚀", "7497": "蚁", "7498": "蚃", "7499": "蚄", "7500": "蚊", "7501": "蚋", "7502": "蚌", "7503": "蚍", "7504": "蚏", "7505": "蚑", "7506": "蚓", "7507": "蚕", "7508": "蚖", "7509": "蚗", "7510": "蚘", "7511": "蚛", "7512": "蚝", "7513": "蚡", "7514": "蚣", "7515": "蚤", "7516": "蚨", "7517": "蚩", "7518": "蚪", "7519": "蚬", "7520": "蚯", "7521": "蚰", "7522": "蚱", "7523": "蚳", "7524": "蚴", "7525": "蚶", "7526": "蚹", "7527": "蚺", "7528": "蚻", "7529": "蚿", "7530": "蛀", "7531": "蛄", "7532": "蛅", "7533": "蛆", "7534": "蛇", "7535": "蛈", "7536": "蛉", "7537": "蛊", "7538": "蛋", "7539": "蛎", "7540": "蛏", "7541": "蛑", "7542": "蛓", "7543": "蛖", "7544": "蛙", "7545": "蛚", "7546": "蛛", "7547": "蛜", "7548": "蛟", "7549": "蛣", "7550": "蛤", "7551": "蛦", "7552": "蛩", "7553": "蛬", "7554": "蛭", "7555": "蛮", "7556": "蛰", "7557": "蛱", "7558": "蛲", "7559": "蛳", "7560": "蛴", "7561": "蛷", "7562": "蛸", "7563": "蛹", "7564": "蛾", "7565": "蜀", "7566": "蜂", "7567": "蜃", "7568": "蜇", "7569": "蜈", "7570": "蜉", "7571": "蜊", "7572": "蜋", "7573": "蜍", "7574": "蜎", "7575": "蜑", "7576": "蜒", "7577": "蜓", "7578": "蜕", "7579": "蜗", "7580": "蜘", "7581": "蜚", "7582": "蜜", "7583": "蜞", "7584": "蜡", "7585": "蜢", "7586": "蜣", "7587": "蜥", "7588": "蜦", "7589": "蜧", "7590": "蜨", "7591": "蜩", "7592": "蜫", "7593": "蜮", "7594": "蜯", "7595": "蜳", "7596": "蜴", "7597": "蜷", "7598": "蜹", "7599": "蜺", "7600": "蜻", "7601": "蜼", "7602": "蜾", "7603": "蜿", "7604": "蝂", "7605": "蝃", "7606": "蝇", "7607": "蝈", "7608": "蝉", "7609": "蝌", "7610": "蝍", "7611": "蝎", "7612": "蝑", "7613": "蝓", "7614": "蝗", "7615": "蝘", "7616": "蝙", "7617": "蝛", "7618": "蝜", "7619": "蝝", "7620": "蝠", "7621": "蝡", "7622": "蝣", "7623": "蝤", "7624": "蝥", "7625": "蝮", "7626": "蝱", "7627": "蝴", "7628": "蝶", "7629": "蝹", "7630": "蝻", "7631": "蝼", "7632": "蝾", "7633": "螀", "7634": "螂", "7635": "螃", "7636": "螇", "7637": "融", "7638": "螓", "7639": "螔", "7640": "螖", "7641": "螗", "7642": "螘", "7643": "螟", "7644": "螠", "7645": "螣", "7646": "螫", "7647": "螬", "7648": "螭", "7649": "螯", "7650": "螰", "7651": "螳", "7652": "螴", "7653": "螵", "7654": "螶", "7655": "螷", "7656": "螺", "7657": "螽", "7658": "螾", "7659": "蟀", "7660": "蟁", "7661": "蟆", "7662": "蟇", "7663": "蟉", "7664": "蟊", "7665": "蟋", "7666": "蟏", "7667": "蟒", "7668": "蟖", "7669": "蟚", "7670": "蟛", "7671": "蟟", "7672": "蟠", "7673": "蟡", "7674": "蟢", "7675": "蟤", "7676": "蟨", "7677": "蟪", "7678": "蟫", "7679": "蟭", "7680": "蟹", "7681": "蟺", "7682": "蟾", "7683": "蠃", "7684": "蠈", "7685": "蠉", "7686": "蠋", "7687": "蠏", "7688": "蠒", "7689": "蠓", "7690": "蠕", "7691": "蠖", "7692": "蠘", "7693": "蠚", "7694": "蠛", "7695": "蠠", "7696": "蠡", "7697": "蠢", "7698": "蠧", "7699": "蠩", "7700": "蠪", "7701": "蠭", "7702": "蠯", "7703": "蠰", "7704": "蠲", "7705": "蠵", "7706": "蠹", "7707": "蠺", "7708": "蠽", "7709": "血", "7710": "衁", "7711": "衂", "7712": "衃", "7713": "衄", "7714": "衅", "7715": "衉", "7716": "衋", "7717": "行", "7718": "衍", "7719": "衎", "7720": "衒", "7721": "衔", "7722": "衖", "7723": "街", "7724": "衘", "7725": "衙", "7726": "衜", "7727": "衞", "7728": "衡", "7729": "衢", "7730": "衣", "7731": "衤", "7732": "补", "7733": "表", "7734": "衩", "7735": "衫", "7736": "衬", "7737": "衮", "7738": "衯", "7739": "衰", "7740": "衱", "7741": "衲", "7742": "衷", "7743": "衹", "7744": "衺", "7745": "衽", "7746": "衾", "7747": "衿", "7748": "袀", "7749": "袁", "7750": "袂", "7751": "袄", "7752": "袅", "7753": "袆", "7754": "袈", "7755": "袋", "7756": "袌", "7757": "袍", "7758": "袐", "7759": "袒", "7760": "袖", "7761": "袗", "7762": "袛", "7763": "袜", "7764": "袝", "7765": "袟", "7766": "袠", "7767": "袢", "7768": "袤", "7769": "袧", "7770": "袨", "7771": "袪", "7772": "被", "7773": "袭", "7774": "袯", "7775": "袲", "7776": "袴", "7777": "袵", "7778": "袷", "7779": "袽", "7780": "袿", "7781": "裀", "7782": "裁", "7783": "裂", "7784": "装", "7785": "裆", "7786": "裈", "7787": "裋", "7788": "裌", "7789": "裎", "7790": "裒", "7791": "裓", "7792": "裔", "7793": "裕", "7794": "裘", "7795": "裙", "7796": "裛", "7797": "裟", "7798": "裠", "7799": "裤", "7800": "裨", "7801": "裩", "7802": "裯", "7803": "裰", "7804": "裳", "7805": "裴", "7806": "裵", "7807": "裶", "7808": "裸", "7809": "裹", "7810": "裻", "7811": "裼", "7812": "裾", "7813": "褁", "7814": "褆", "7815": "褉", "7816": "褊", "7817": "褋", "7818": "褎", "7819": "褏", "7820": "褐", "7821": "褒", "7822": "褓", "7823": "褕", "7824": "褚", "7825": "褠", "7826": "褥", "7827": "褦", "7828": "褧", "7829": "褪", "7830": "褫", "7831": "褭", "7832": "褰", "7833": "褴", "7834": "褵", "7835": "褶", "7836": "褷", "7837": "褼", "7838": "褾", "7839": "襁", "7840": "襃", "7841": "襄", "7842": "襆", "7843": "襋", "7844": "襌", "7845": "襍", "7846": "襕", "7847": "襚", "7848": "襜", "7849": "襞", "7850": "襟", "7851": "襡", "7852": "襥", "7853": "襦", "7854": "襧", "7855": "襫", "7856": "襭", "7857": "襮", "7858": "襶", "7859": "襹", "7860": "襻", "7861": "襼", "7862": "西", "7863": "覀", "7864": "要", "7865": "覂", "7866": "覃", "7867": "覆", "7868": "覇", "7869": "覉", "7870": "覊", "7871": "覔", "7872": "覢", "7873": "覤", "7874": "覧", "7875": "覩", "7876": "覰", "7877": "覶", "7878": "覸", "7879": "覻", "7880": "见", "7881": "观", "7882": "规", "7883": "觅", "7884": "视", "7885": "觇", "7886": "览", "7887": "觉", "7888": "觊", "7889": "觋", "7890": "觌", "7891": "觎", "7892": "觏", "7893": "觐", "7894": "觑", "7895": "角", "7896": "觔", "7897": "觕", "7898": "觖", "7899": "觚", "7900": "觜", "7901": "觝", "7902": "觞", "7903": "觟", "7904": "觡", "7905": "解", "7906": "觥", "7907": "触", "7908": "觧", "7909": "觫", "7910": "觭", "7911": "觯", "7912": "觱", "7913": "觳", "7914": "觵", "7915": "觹", "7916": "觺", "7917": "觽", "7918": "觿", "7919": "言", "7920": "訇", "7921": "訔", "7922": "訚", "7923": "訦", "7924": "訧", "7925": "訹", "7926": "訾", "7927": "訿", "7928": "詄", "7929": "詅", "7930": "詈", "7931": "詉", "7932": "詋", "7933": "詟", "7934": "詧", "7935": "詨", "7936": "詶", "7937": "詹", "7938": "詾", "7939": "誉", "7940": "誊", "7941": "誓", "7942": "誖", "7943": "誙", "7944": "誵", "7945": "諌", "7946": "諐", "7947": "諔", "7948": "諕", "7949": "諠", "7950": "諵", "7951": "謇", "7952": "謌", "7953": "謞", "7954": "謟", "7955": "謦", "7956": "謩", "7957": "謷", "7958": "謼", "7959": "謿", "7960": "譀", "7961": "譈", "7962": "譌", "7963": "譍", "7964": "譒", "7965": "譔", "7966": "譛", "7967": "譡", "7968": "譣", "7969": "警", "7970": "譩", "7971": "譬", "7972": "譳", "7973": "譻", "7974": "讁", "7975": "讇", "7976": "讐", "7977": "讘", "7978": "讙", "7979": "讟", "7980": "计", "7981": "订", "7982": "讣", "7983": "认", "7984": "讥", "7985": "讦", "7986": "讧", "7987": "讨", "7988": "让", "7989": "讪", "7990": "讫", "7991": "训", "7992": "议", "7993": "讯", "7994": "记", "7995": "讱", "7996": "讲", "7997": "讳", "7998": "讴", "7999": "讵", "8000": "讶", "8001": "讷", "8002": "许", "8003": "讹", "8004": "论", "8005": "讻", "8006": "讼", "8007": "讽", "8008": "设", "8009": "访", "8010": "诀", "8011": "证", "8012": "诂", "8013": "诃", "8014": "评", "8015": "诅", "8016": "识", "8017": "诇", "8018": "诈", "8019": "诉", "8020": "诊", "8021": "诋", "8022": "词", "8023": "诎", "8024": "诏", "8025": "诐", "8026": "译", "8027": "诒", "8028": "诔", "8029": "试", "8030": "诖", "8031": "诗", "8032": "诘", "8033": "诙", "8034": "诚", "8035": "诛", "8036": "诜", "8037": "话", "8038": "诞", "8039": "诟", "8040": "诠", "8041": "诡", "8042": "询", "8043": "诣", "8044": "诤", "8045": "该", "8046": "详", "8047": "诧", "8048": "诨", "8049": "诩", "8050": "诪", "8051": "诫", "8052": "诬", "8053": "语", "8054": "诮", "8055": "误", "8056": "诰", "8057": "诱", "8058": "诲", "8059": "诳", "8060": "说", "8061": "诵", "8062": "请", "8063": "诸", "8064": "诹", "8065": "诺", "8066": "读", "8067": "诼", "8068": "诽", "8069": "课", "8070": "诿", "8071": "谀", "8072": "谁", "8073": "谂", "8074": "调", "8075": "谄", "8076": "谅", "8077": "谆", "8078": "谇", "8079": "谈", "8080": "谊", "8081": "谋", "8082": "谌", "8083": "谍", "8084": "谏", "8085": "谐", "8086": "谑", "8087": "谒", "8088": "谓", "8089": "谔", "8090": "谕", "8091": "谖", "8092": "谗", "8093": "谙", "8094": "谚", "8095": "谛", "8096": "谜", "8097": "谝", "8098": "谞", "8099": "谟", "8100": "谠", "8101": "谡", "8102": "谢", "8103": "谣", "8104": "谤", "8105": "谥", "8106": "谦", "8107": "谧", "8108": "谨", "8109": "谩", "8110": "谪", "8111": "谫", "8112": "谬", "8113": "谭", "8114": "谮", "8115": "谯", "8116": "谰", "8117": "谱", "8118": "谲", "8119": "谳", "8120": "谴", "8121": "谵", "8122": "谶", "8123": "谷", "8124": "谹", "8125": "谺", "8126": "谼", "8127": "谽", "8128": "谾", "8129": "谿", "8130": "豁", "8131": "豅", "8132": "豆", "8133": "豉", "8134": "豊", "8135": "豋", "8136": "豌", "8137": "豓", "8138": "豕", "8139": "豖", "8140": "豗", "8141": "豚", "8142": "豜", "8143": "豝", "8144": "象", "8145": "豢", "8146": "豦", "8147": "豨", "8148": "豪", "8149": "豫", "8150": "豭", "8151": "豮", "8152": "豰", "8153": "豳", "8154": "豸", "8155": "豹", "8156": "豺", "8157": "豽", "8158": "貁", "8159": "貂", "8160": "貃", "8161": "貅", "8162": "貆", "8163": "貉", "8164": "貊", "8165": "貌", "8166": "貍", "8167": "貎", "8168": "貐", "8169": "貒", "8170": "貔", "8171": "貘", "8172": "貛", "8173": "貣", "8174": "貤", "8175": "賏", "8176": "賔", "8177": "賖", "8178": "賛", "8179": "賨", "8180": "賮", "8181": "賷", "8182": "賸", "8183": "贙", "8184": "贝", "8185": "贞", "8186": "负", "8187": "贡", "8188": "财", "8189": "责", "8190": "贤", "8191": "败", "8192": "账", "8193": "货", "8194": "质", "8195": "贩", "8196": "贪", "8197": "贫", "8198": "贬", "8199": "购", "8200": "贮", "8201": "贯", "8202": "贰", "8203": "贱", "8204": "贲", "8205": "贳", "8206": "贴", "8207": "贵", "8208": "贶", "8209": "贷", "8210": "贸", "8211": "费", "8212": "贺", "8213": "贻", "8214": "贼", "8215": "贽", "8216": "贾", "8217": "贿", "8218": "赀", "8219": "赁", "8220": "赂", "8221": "赃", "8222": "资", "8223": "赆", "8224": "赇", "8225": "赈", "8226": "赉", "8227": "赊", "8228": "赋", "8229": "赌", "8230": "赍", "8231": "赎", "8232": "赏", "8233": "赐", "8234": "赑", "8235": "赒", "8236": "赓", "8237": "赖", "8238": "赗", "8239": "赘", "8240": "赙", "8241": "赚", "8242": "赛", "8243": "赜", "8244": "赝", "8245": "赞", "8246": "赟", "8247": "赠", "8248": "赡", "8249": "赢", "8250": "赣", "8251": "赤", "8252": "赦", "8253": "赧", "8254": "赩", "8255": "赪", "8256": "赫", "8257": "赭", "8258": "赮", "8259": "走", "8260": "赳", "8261": "赴", "8262": "赵", "8263": "赶", "8264": "起", "8265": "趁", "8266": "趂", "8267": "趄", "8268": "超", "8269": "越", "8270": "趋", "8271": "趍", "8272": "趐", "8273": "趑", "8274": "趒", "8275": "趓", "8276": "趖", "8277": "趗", "8278": "趚", "8279": "趟", "8280": "趠", "8281": "趢", "8282": "趣", "8283": "趦", "8284": "趫", "8285": "趬", "8286": "趯", "8287": "趱", "8288": "足", "8289": "趸", "8290": "趺", "8291": "趻", "8292": "趼", "8293": "趾", "8294": "趿", "8295": "跁", "8296": "跂", "8297": "跃", "8298": "跄", "8299": "跅", "8300": "跆", "8301": "跉", "8302": "跋", "8303": "跌", "8304": "跎", "8305": "跏", "8306": "跐", "8307": "跑", "8308": "跒", "8309": "跓", "8310": "跕", "8311": "跖", "8312": "跗", "8313": "跙", "8314": "跚", "8315": "跛", "8316": "跜", "8317": "距", "8318": "跞", "8319": "跟", "8320": "跣", "8321": "跧", "8322": "跨", "8323": "跪", "8324": "跫", "8325": "跬", "8326": "路", "8327": "跰", "8328": "跱", "8329": "跲", "8330": "跳", "8331": "践", "8332": "跷", "8333": "跸", "8334": "跹", "8335": "跻", "8336": "跼", "8337": "跽", "8338": "跿", "8339": "踁", "8340": "踆", "8341": "踈", "8342": "踉", "8343": "踊", "8344": "踌", "8345": "踏", "8346": "踒", "8347": "踔", "8348": "踖", "8349": "踘", "8350": "踜", "8351": "踝", "8352": "踞", "8353": "踟", "8354": "踠", "8355": "踡", "8356": "踢", "8357": "踣", "8358": "踤", "8359": "踦", "8360": "踧", "8361": "踨", "8362": "踪", "8363": "踬", "8364": "踯", "8365": "踳", "8366": "踵", "8367": "踶", "8368": "踷", "8369": "踸", "8370": "踼", "8371": "踽", "8372": "踾", "8373": "蹀", "8374": "蹁", "8375": "蹂", "8376": "蹄", "8377": "蹇", "8378": "蹈", "8379": "蹉", "8380": "蹊", "8381": "蹋", "8382": "蹍", "8383": "蹎", "8384": "蹏", "8385": "蹐", "8386": "蹑", "8387": "蹒", "8388": "蹙", "8389": "蹛", "8390": "蹜", "8391": "蹝", "8392": "蹞", "8393": "蹡", "8394": "蹢", "8395": "蹩", "8396": "蹬", "8397": "蹭", "8398": "蹮", "8399": "蹯", "8400": "蹰", "8401": "蹲", "8402": "蹴", "8403": "蹵", "8404": "蹶", "8405": "蹷", "8406": "蹼", "8407": "躁", "8408": "躃", "8409": "躄", "8410": "躅", "8411": "躇", "8412": "躏", "8413": "躐", "8414": "躔", "8415": "躖", "8416": "躗", "8417": "躙", "8418": "躛", "8419": "躞", "8420": "躟", "8421": "躠", "8422": "躣", "8423": "躧", "8424": "躨", "8425": "躩", "8426": "身", "8427": "躬", "8428": "躭", "8429": "躯", "8430": "躶", "8431": "躺", "8432": "軃", "8433": "軄", "8434": "軓", "8435": "軥", "8436": "軮", "8437": "軰", "8438": "軱", "8439": "軶", "8440": "輀", "8441": "輘", "8442": "輙", "8443": "輚", "8444": "輠", "8445": "輣", "8446": "輤", "8447": "輧", "8448": "輭", "8449": "輴", "8450": "輵", "8451": "輹", "8452": "轃", "8453": "轏", "8454": "轑", "8455": "轒", "8456": "轓", "8457": "轕", "8458": "轖", "8459": "轘", "8460": "轜", "8461": "轝", "8462": "轞", "8463": "轥", "8464": "车", "8465": "轧", "8466": "轨", "8467": "轩", "8468": "轪", "8469": "轫", "8470": "转", "8471": "轭", "8472": "轮", "8473": "软", "8474": "轰", "8475": "轲", "8476": "轳", "8477": "轴", "8478": "轵", "8479": "轶", "8480": "轸", "8481": "轹", "8482": "轺", "8483": "轻", "8484": "轼", "8485": "载", "8486": "轾", "8487": "轿", "8488": "辀", "8489": "辂", "8490": "较", "8491": "辄", "8492": "辅", "8493": "辇", "8494": "辈", "8495": "辉", "8496": "辊", "8497": "辋", "8498": "辌", "8499": "辍", "8500": "辎", "8501": "辏", "8502": "辐", "8503": "辑", "8504": "辒", "8505": "输", "8506": "辔", "8507": "辕", "8508": "辖", "8509": "辗", "8510": "辘", "8511": "辙", "8512": "辚", "8513": "辛", "8514": "辜", "8515": "辞", "8516": "辟", "8517": "辠", "8518": "辣", "8519": "辤", "8520": "辨", "8521": "辩", "8522": "辫", "8523": "辰", "8524": "辱", "8525": "辴", "8526": "辶", "8527": "边", "8528": "辽", "8529": "达", "8530": "迁", "8531": "迂", "8532": "迄", "8533": "迅", "8534": "迆", "8535": "过", "8536": "迈", "8537": "迋", "8538": "迍", "8539": "迎", "8540": "运", "8541": "近", "8542": "迒", "8543": "迓", "8544": "返", "8545": "迕", "8546": "还", "8547": "这", "8548": "进", "8549": "远", "8550": "违", "8551": "连", "8552": "迟", "8553": "迢", "8554": "迤", "8555": "迥", "8556": "迦", "8557": "迨", "8558": "迩", "8559": "迪", "8560": "迫", "8561": "迭", "8562": "迮", "8563": "述", "8564": "迳", "8565": "迷", "8566": "迸", "8567": "迹", "8568": "迺", "8569": "迻", "8570": "追", "8571": "迾", "8572": "退", "8573": "送", "8574": "适", "8575": "逃", "8576": "逄", "8577": "逅", "8578": "逆", "8579": "逈", "8580": "选", "8581": "逊", "8582": "逋", "8583": "逌", "8584": "逍", "8585": "逎", "8586": "透", "8587": "逐", "8588": "逑", "8589": "递", "8590": "逓", "8591": "途", "8592": "逖", "8593": "逗", "8594": "通", "8595": "逝", "8596": "逞", "8597": "速", "8598": "造", "8599": "逡", "8600": "逢", "8601": "逤", "8602": "逥", "8603": "逦", "8604": "逨", "8605": "逬", "8606": "逭", "8607": "逮", "8608": "逯", "8609": "逰", "8610": "逴", "8611": "逵", "8612": "逶", "8613": "逸", "8614": "逺", "8615": "逻", "8616": "逼", "8617": "逾", "8618": "逿", "8619": "遁", "8620": "遂", "8621": "遄", "8622": "遇", "8623": "遌", "8624": "遍", "8625": "遏", "8626": "遐", "8627": "遑", "8628": "遒", "8629": "道", "8630": "遗", "8631": "遘", "8632": "遛", "8633": "遝", "8634": "遟", "8635": "遣", "8636": "遥", "8637": "遨", "8638": "遬", "8639": "遭", "8640": "遮", "8641": "遯", "8642": "遰", "8643": "遴", "8644": "遵", "8645": "遶", "8646": "遹", "8647": "遻", "8648": "遽", "8649": "避", "8650": "邀", "8651": "邂", "8652": "邃", "8653": "邅", "8654": "邈", "8655": "邉", "8656": "邍", "8657": "邑", "8658": "邓", "8659": "邕", "8660": "邗", "8661": "邘", "8662": "邙", "8663": "邛", "8664": "邝", "8665": "邠", "8666": "邡", "8667": "邢", "8668": "那", "8669": "邦", "8670": "邨", "8671": "邪", "8672": "邬", "8673": "邮", "8674": "邯", "8675": "邰", "8676": "邱", "8677": "邲", "8678": "邳", "8679": "邴", "8680": "邵", "8681": "邶", "8682": "邸", "8683": "邹", "8684": "邺", "8685": "邻", "8686": "邽", "8687": "邾", "8688": "郁", "8689": "郃", "8690": "郄", "8691": "郅", "8692": "郇", "8693": "郈", "8694": "郊", "8695": "郎", "8696": "郏", "8697": "郐", "8698": "郑", "8699": "郓", "8700": "郔", "8701": "郕", "8702": "郗", "8703": "郛", "8704": "郜", "8705": "郝", "8706": "郞", "8707": "郡", "8708": "郢", "8709": "郤", "8710": "郦", "8711": "郧", "8712": "部", "8713": "郪", "8714": "郫", "8715": "郭", "8716": "郯", "8717": "郲", "8718": "郳", "8719": "郴", "8720": "郷", "8721": "郸", "8722": "都", "8723": "郾", "8724": "郿", "8725": "鄀", "8726": "鄂", "8727": "鄄", "8728": "鄅", "8729": "鄊", "8730": "鄋", "8731": "鄏", "8732": "鄗", "8733": "鄘", "8734": "鄙", "8735": "鄛", "8736": "鄜", "8737": "鄞", "8738": "鄠", "8739": "鄡", "8740": "鄢", "8741": "鄣", "8742": "鄥", "8743": "鄫", "8744": "鄬", "8745": "鄮", "8746": "鄯", "8747": "鄱", "8748": "鄹", "8749": "鄼", "8750": "鄽", "8751": "酂", "8752": "酃", "8753": "酅", "8754": "酆", "8755": "酉", "8756": "酊", "8757": "酋", "8758": "酌", "8759": "配", "8760": "酎", "8761": "酏", "8762": "酒", "8763": "酔", "8764": "酕", "8765": "酖", "8766": "酗", "8767": "酘", "8768": "酙", "8769": "酝", "8770": "酟", "8771": "酡", "8772": "酢", "8773": "酣", "8774": "酤", "8775": "酥", "8776": "酦", "8777": "酧", "8778": "酨", "8779": "酩", "8780": "酪", "8781": "酬", "8782": "酭", "8783": "酱", "8784": "酲", "8785": "酴", "8786": "酵", "8787": "酷", "8788": "酸", "8789": "酹", "8790": "酺", "8791": "酽", "8792": "酾", "8793": "酿", "8794": "醁", "8795": "醄", "8796": "醅", "8797": "醆", "8798": "醇", "8799": "醉", "8800": "醋", "8801": "醌", "8802": "醍", "8803": "醎", "8804": "醐", "8805": "醑", "8806": "醒", "8807": "醓", "8808": "醝", "8809": "醠", "8810": "醡", "8811": "醢", "8812": "醤", "8813": "醥", "8814": "醦", "8815": "醨", "8816": "醩", "8817": "醪", "8818": "醭", "8819": "醮", "8820": "醯", "8821": "醳", "8822": "醴", "8823": "醵", "8824": "醷", "8825": "醸", "8826": "醹", "8827": "醺", "8828": "醻", "8829": "醼", "8830": "醽", "8831": "醾", "8832": "醿", "8833": "釂", "8834": "釄", "8835": "釆", "8836": "采", "8837": "释", "8838": "里", "8839": "重", "8840": "野", "8841": "量", "8842": "金", "8843": "釜", "8844": "釡", "8845": "釭", "8846": "釱", "8847": "鈌", "8848": "鈚", "8849": "鈜", "8850": "鈱", "8851": "鉄", "8852": "鉎", "8853": "鉏", "8854": "鉘", "8855": "鉟", "8856": "鉴", "8857": "銕", "8858": "銙", "8859": "銭", "8860": "銮", "8861": "銲", "8862": "鋈", "8863": "鋋", "8864": "鋘", "8865": "鋜", "8866": "鋞", "8867": "錋", "8868": "錬", "8869": "錾", "8870": "鍑", "8871": "鍖", "8872": "鍜", "8873": "鍧", "8874": "鍪", "8875": "鍱", "8876": "鍳", "8877": "鎁", "8878": "鎒", "8879": "鎗", "8880": "鎻", "8881": "鏁", "8882": "鏄", "8883": "鏊", "8884": "鏕", "8885": "鏖", "8886": "鏠", "8887": "鏴", "8888": "鐀", "8889": "鐡", "8890": "鐻", "8891": "鑋", "8892": "鑚", "8893": "鑛", "8894": "鑨", "8895": "鑮", "8896": "钅", "8897": "针", "8898": "钉", "8899": "钊", "8900": "钏", "8901": "钐", "8902": "钑", "8903": "钓", "8904": "钖", "8905": "钗", "8906": "钛", "8907": "钜", "8908": "钝", "8909": "钞", "8910": "钟", "8911": "钢", "8912": "钤", "8913": "钥", "8914": "钦", "8915": "钧", "8916": "钩", "8917": "钮", "8918": "钰", "8919": "钱", "8920": "钲", "8921": "钳", "8922": "钴", "8923": "钵", "8924": "钺", "8925": "钻", "8926": "钿", "8927": "铁", "8928": "铃", "8929": "铄", "8930": "铅", "8931": "铇", "8932": "铉", "8933": "铍", "8934": "铎", "8935": "铏", "8936": "铒", "8937": "铓", "8938": "铗", "8939": "铘", "8940": "铙", "8941": "铚", "8942": "铛", "8943": "铜", "8944": "铠", "8945": "铢", "8946": "铣", "8947": "铤", "8948": "铦", "8949": "铧", "8950": "铨", "8951": "铩", "8952": "铫", "8953": "铬", "8954": "铭", "8955": "铮", "8956": "铰", "8957": "铲", "8958": "银", "8959": "铸", "8960": "铺", "8961": "铻", "8962": "链", "8963": "铿", "8964": "销", "8965": "锁", "8966": "锄", "8967": "锅", "8968": "锈", "8969": "锉", "8970": "锊", "8971": "锋", "8972": "锐", "8973": "锒", "8974": "锓", "8975": "锔", "8976": "错", "8977": "锚", "8978": "锜", "8979": "锟", "8980": "锡", "8981": "锢", "8982": "锣", "8983": "锤", "8984": "锥", "8985": "锦", "8986": "锧", "8987": "锫", "8988": "锬", "8989": "锭", "8990": "键", "8991": "锯", "8992": "锱", "8993": "锴", "8994": "锵", "8995": "锷", "8996": "锸", "8997": "锹", "8998": "锺", "8999": "锻", "9000": "锼", "9001": "锽", "9002": "锾", "9003": "镀", "9004": "镂", "9005": "镃", "9006": "镆", "9007": "镇", "9008": "镈", "9009": "镉", "9010": "镊", "9011": "镌", "9012": "镏", "9013": "镐", "9014": "镒", "9015": "镔", "9016": "镕", "9017": "镖", "9018": "镗", "9019": "镘", "9020": "镛", "9021": "镜", "9022": "镝", "9023": "镞", "9024": "镠", "9025": "镡", "9026": "镢", "9027": "镣", "9028": "镤", "9029": "镦", "9030": "镩", "9031": "镪", "9032": "镫", "9033": "镬", "9034": "镮", "9035": "镯", "9036": "镰", "9037": "镳", "9038": "镴", "9039": "镵", "9040": "长", "9041": "閙", "9042": "閟", "9043": "閠", "9044": "関", "9045": "閦", "9046": "閧", "9047": "閰", "9048": "閴", "9049": "閷", "9050": "闂", "9051": "闗", "9052": "闘", "9053": "闚", "9054": "闟", "9055": "门", "9056": "闪", "9057": "闬", "9058": "闭", "9059": "问", "9060": "闯", "9061": "闰", "9062": "闱", "9063": "闲", "9064": "闳", "9065": "间", "9066": "闵", "9067": "闶", "9068": "闷", "9069": "闸", "9070": "闹", "9071": "闺", "9072": "闻", "9073": "闼", "9074": "闽", "9075": "闾", "9076": "闿", "9077": "阀", "9078": "阁", "9079": "阂", "9080": "阃", "9081": "阄", "9082": "阅", "9083": "阆", "9084": "阇", "9085": "阈", "9086": "阉", "9087": "阊", "9088": "阋", "9089": "阌", "9090": "阍", "9091": "阎", "9092": "阏", "9093": "阐", "9094": "阑", "9095": "阒", "9096": "阓", "9097": "阔", "9098": "阕", "9099": "阖", "9100": "阗", "9101": "阘", "9102": "阙", "9103": "阚", "9104": "阛", "9105": "阜", "9106": "队", "9107": "阡", "9108": "阤", "9109": "阨", "9110": "阪", "9111": "阬", "9112": "阮", "9113": "阯", "9114": "阱", "9115": "防", "9116": "阳", "9117": "阴", "9118": "阵", "9119": "阶", "9120": "阸", "9121": "阹", "9122": "阺", "9123": "阻", "9124": "阼", "9125": "阽", "9126": "阿", "9127": "陀", "9128": "陁", "9129": "陂", "9130": "附", "9131": "际", "9132": "陆", "9133": "陇", "9134": "陈", "9135": "陉", "9136": "陊", "9137": "陋", "9138": "陌", "9139": "降", "9140": "限", "9141": "陑", "9142": "陔", "9143": "陕", "9144": "陛", "9145": "陜", "9146": "陟", "9147": "陡", "9148": "院", "9149": "除", "9150": "陧", "9151": "陨", "9152": "险", "9153": "陪", "9154": "陫", "9155": "陬", "9156": "陲", "9157": "陴", "9158": "陵", "9159": "陶", "9160": "陷", "9161": "陻", "9162": "陼", "9163": "陿", "9164": "隃", "9165": "隄", "9166": "隅", "9167": "隆", "9168": "隈", "9169": "隋", "9170": "隍", "9171": "随", "9172": "隐", "9173": "隒", "9174": "隔", "9175": "隗", "9176": "隘", "9177": "隙", "9178": "障", "9179": "隟", "9180": "隠", "9181": "隣", "9182": "隧", "9183": "隩", "9184": "隬", "9185": "隰", "9186": "隲", "9187": "隳", "9188": "隵", "9189": "隶", "9190": "隷", "9191": "隹", "9192": "隼", "9193": "隽", "9194": "难", "9195": "雀", "9196": "雁", "9197": "雄", "9198": "雅", "9199": "集", "9200": "雇", "9201": "雉", "9202": "雊", "9203": "雌", "9204": "雍", "9205": "雎", "9206": "雏", "9207": "雒", "9208": "雕", "9209": "雘", "9210": "雚", "9211": "雝", "9212": "雟", "9213": "雠", "9214": "雨", "9215": "雩", "9216": "雪", "9217": "雭", "9218": "雯", "9219": "雰", "9220": "雱", "9221": "雳", "9222": "零", "9223": "雷", "9224": "雹", "9225": "雺", "9226": "雾", "9227": "需", "9228": "霁", "9229": "霂", "9230": "霃", "9231": "霄", "9232": "霅", "9233": "霆", "9234": "震", "9235": "霈", "9236": "霉", "9237": "霋", "9238": "霍", "9239": "霎", "9240": "霏", "9241": "霒", "9242": "霓", "9243": "霔", "9244": "霖", "9245": "霙", "9246": "霛", "9247": "霜", "9248": "霝", "9249": "霞", "9250": "霠", "9251": "霡", "9252": "霤", "9253": "霨", "9254": "霪", "9255": "霫", "9256": "霭", "9257": "霮", "9258": "霰", "9259": "霱", "9260": "露", "9261": "霵", "9262": "霶", "9263": "霸", "9264": "霹", "9265": "霺", "9266": "霾", "9267": "霿", "9268": "靁", "9269": "靃", "9270": "靑", "9271": "青", "9272": "靓", "9273": "靖", "9274": "靘", "9275": "静", "9276": "靛", "9277": "非", "9278": "靠", "9279": "靡", "9280": "面", "9281": "靣", "9282": "靥", "9283": "革", "9284": "靫", "9285": "靭", "9286": "靮", "9287": "靳", "9288": "靴", "9289": "靶", "9290": "靷", "9291": "靸", "9292": "靺", "9293": "靼", "9294": "靽", "9295": "鞀", "9296": "鞁", "9297": "鞅", "9298": "鞈", "9299": "鞉", "9300": "鞋", "9301": "鞍", "9302": "鞑", "9303": "鞓", "9304": "鞔", "9305": "鞗", "9306": "鞘", "9307": "鞙", "9308": "鞚", "9309": "鞞", "9310": "鞟", "9311": "鞠", "9312": "鞢", "9313": "鞨", "9314": "鞫", "9315": "鞬", "9316": "鞭", "9317": "鞮", "9318": "鞯", "9319": "鞲", "9320": "鞳", "9321": "鞴", "9322": "鞵", "9323": "鞶", "9324": "鞹", "9325": "鞺", "9326": "鞿", "9327": "韀", "9328": "韂", "9329": "韄", "9330": "韅", "9331": "韈", "9332": "韊", "9333": "韎", "9334": "韐", "9335": "韒", "9336": "韔", "9337": "韘", "9338": "韡", "9339": "韣", "9340": "韤", "9341": "韦", "9342": "韧", "9343": "韨", "9344": "韩", "9345": "韪", "9346": "韫", "9347": "韬", "9348": "韭", "9349": "韮", "9350": "韲", "9351": "音", "9352": "韵", "9353": "韶", "9354": "韸", "9355": "韺", "9356": "韽", "9357": "頀", "9358": "頄", "9359": "頋", "9360": "頖", "9361": "頞", "9362": "頟", "9363": "頥", "9364": "頩", "9365": "頬", "9366": "頳", "9367": "頺", "9368": "頼", "9369": "顄", "9370": "顇", "9371": "顋", "9372": "顐", "9373": "顑", "9374": "顚", "9375": "顦", "9376": "页", "9377": "顶", "9378": "顷", "9379": "顸", "9380": "项", "9381": "顺", "9382": "须", "9383": "顼", "9384": "顽", "9385": "顾", "9386": "顿", "9387": "颀", "9388": "颁", "9389": "颂", "9390": "颃", "9391": "预", "9392": "颅", "9393": "领", "9394": "颇", "9395": "颈", "9396": "颉", "9397": "颊", "9398": "颋", "9399": "颌", "9400": "颍", "9401": "颎", "9402": "颏", "9403": "颐", "9404": "频", "9405": "颒", "9406": "颓", "9407": "颔", "9408": "颕", "9409": "颖", "9410": "颗", "9411": "题", "9412": "颙", "9413": "颛", "9414": "颜", "9415": "额", "9416": "颟", "9417": "颠", "9418": "颡", "9419": "颢", "9420": "颣", "9421": "颤", "9422": "颦", "9423": "颧", "9424": "颫", "9425": "颿", "9426": "飁", "9427": "飂", "9428": "飃", "9429": "飇", "9430": "飊", "9431": "飍", "9432": "风", "9433": "飏", "9434": "飐", "9435": "飒", "9436": "飓", "9437": "飔", "9438": "飕", "9439": "飖", "9440": "飗", "9441": "飘", "9442": "飙", "9443": "飚", "9444": "飜", "9445": "飞", "9446": "食", "9447": "飡", "9448": "飧", "9449": "飨", "9450": "飬", "9451": "飰", "9452": "飺", "9453": "餁", "9454": "餂", "9455": "餍", "9456": "餐", "9457": "餙", "9458": "餟", "9459": "餠", "9460": "餤", "9461": "餮", "9462": "餰", "9463": "餲", "9464": "餻", "9465": "餽", "9466": "饇", "9467": "饍", "9468": "饎", "9469": "饐", "9470": "饔", "9471": "饕", "9472": "饙", "9473": "饛", "9474": "饣", "9475": "饤", "9476": "饥", "9477": "饦", "9478": "饧", "9479": "饨", "9480": "饩", "9481": "饪", "9482": "饫", "9483": "饬", "9484": "饭", "9485": "饮", "9486": "饯", "9487": "饰", "9488": "饱", "9489": "饲", "9490": "饴", "9491": "饵", "9492": "饶", "9493": "饷", "9494": "饼", "9495": "饽", "9496": "饾", "9497": "饿", "9498": "馀", "9499": "馁", "9500": "馂", "9501": "馄", "9502": "馅", "9503": "馆", "9504": "馈", "9505": "馋", "9506": "馌", "9507": "馎", "9508": "馏", "9509": "馐", "9510": "馑", "9511": "馒", "9512": "馔", "9513": "首", "9514": "馗", "9515": "馘", "9516": "香", "9517": "馞", "9518": "馡", "9519": "馣", "9520": "馤", "9521": "馥", "9522": "馧", "9523": "馨", "9524": "馵", "9525": "馺", "9526": "馽", "9527": "馿", "9528": "駄", "9529": "駈", "9530": "駏", "9531": "駜", "9532": "駬", "9533": "駮", "9534": "駴", "9535": "駷", "9536": "駹", "9537": "騀", "9538": "騋", "9539": "騐", "9540": "騕", "9541": "騗", "9542": "騘", "9543": "騢", "9544": "騣", "9545": "騩", "9546": "驆", "9547": "驉", "9548": "驑", "9549": "驔", "9550": "驘", "9551": "驩", "9552": "马", "9553": "驭", "9554": "驮", "9555": "驯", "9556": "驰", "9557": "驱", "9558": "驲", "9559": "驳", "9560": "驴", "9561": "驵", "9562": "驶", "9563": "驷", "9564": "驸", "9565": "驹", "9566": "驺", "9567": "驻", "9568": "驼", "9569": "驽", "9570": "驾", "9571": "驿", "9572": "骀", "9573": "骁", "9574": "骂", "9575": "骃", "9576": "骄", "9577": "骅", "9578": "骆", "9579": "骇", "9580": "骈", "9581": "骊", "9582": "骋", "9583": "验", "9584": "骍", "9585": "骎", "9586": "骏", "9587": "骐", "9588": "骑", "9589": "骓", "9590": "骕", "9591": "骖", "9592": "骘", "9593": "骙", "9594": "骚", "9595": "骛", "9596": "骜", "9597": "骝", "9598": "骞", "9599": "骠", "9600": "骡", "9601": "骢", "9602": "骤", "9603": "骥", "9604": "骦", "9605": "骧", "9606": "骨", "9607": "骩", "9608": "骫", "9609": "骭", "9610": "骰", "9611": "骲", "9612": "骳", "9613": "骴", "9614": "骷", "9615": "骸", "9616": "骹", "9617": "骻", "9618": "骼", "9619": "骾", "9620": "髀", "9621": "髁", "9622": "髂", "9623": "髄", "9624": "髅", "9625": "髆", "9626": "髇", "9627": "髋", "9628": "髌", "9629": "髐", "9630": "髑", "9631": "髓", "9632": "高", "9633": "髙", "9634": "髟", "9635": "髠", "9636": "髡", "9637": "髢", "9638": "髣", "9639": "髦", "9640": "髧", "9641": "髩", "9642": "髪", "9643": "髫", "9644": "髬", "9645": "髭", "9646": "髯", "9647": "髲", "9648": "髴", "9649": "髵", "9650": "髹", "9651": "髺", "9652": "髻", "9653": "髼", "9654": "髽", "9655": "髾", "9656": "髿", "9657": "鬂", "9658": "鬃", "9659": "鬄", "9660": "鬅", "9661": "鬇", "9662": "鬈", "9663": "鬉", "9664": "鬋", "9665": "鬌", "9666": "鬐", "9667": "鬑", "9668": "鬒", "9669": "鬓", "9670": "鬔", "9671": "鬘", "9672": "鬙", "9673": "鬛", "9674": "鬝", "9675": "鬟", "9676": "鬡", "9677": "鬣", "9678": "鬤", "9679": "鬪", "9680": "鬬", "9681": "鬭", "9682": "鬯", "9683": "鬰", "9684": "鬲", "9685": "鬳", "9686": "鬴", "9687": "鬵", "9688": "鬷", "9689": "鬺", "9690": "鬻", "9691": "鬼", "9692": "鬽", "9693": "魁", "9694": "魂", "9695": "魃", "9696": "魄", "9697": "魅", "9698": "魇", "9699": "魈", "9700": "魉", "9701": "魋", "9702": "魌", "9703": "魍", "9704": "魏", "9705": "魑", "9706": "魔", "9707": "魖", "9708": "魗", "9709": "魶", "9710": "鮌", "9711": "鮧", "9712": "鯈", "9713": "鯘", "9714": "鯯", "9715": "鯹", "9716": "鰅", "9717": "鰔", "9718": "鱍", "9719": "鱎", "9720": "鱏", "9721": "鱐", "9722": "鱓", "9723": "鱙", "9724": "鱻", "9725": "鱼", "9726": "鱽", "9727": "鲀", "9728": "鲁", "9729": "鲂", "9730": "鲇", "9731": "鲈", "9732": "鲊", "9733": "鲋", "9734": "鲌", "9735": "鲍", "9736": "鲎", "9737": "鲐", "9738": "鲑", "9739": "鲒", "9740": "鲔", "9741": "鲕", "9742": "鲗", "9743": "鲘", "9744": "鲙", "9745": "鲚", "9746": "鲛", "9747": "鲜", "9748": "鲞", "9749": "鲟", "9750": "鲠", "9751": "鲤", "9752": "鲥", "9753": "鲦", "9754": "鲧", "9755": "鲨", "9756": "鲫", "9757": "鲭", "9758": "鲮", "9759": "鲰", "9760": "鲲", "9761": "鲵", "9762": "鲸", "9763": "鲽", "9764": "鲿", "9765": "鳃", "9766": "鳄", "9767": "鳅", "9768": "鳆", "9769": "鳊", "9770": "鳌", "9771": "鳍", "9772": "鳏", "9773": "鳐", "9774": "鳖", "9775": "鳗", "9776": "鳙", "9777": "鳛", "9778": "鳜", "9779": "鳝", "9780": "鳞", "9781": "鳟", "9782": "鳢", "9783": "鳣", "9784": "鳦", "9785": "鳭", "9786": "鳯", "9787": "鳸", "9788": "鳿", "9789": "鴂", "9790": "鴈", "9791": "鴧", "9792": "鴬", "9793": "鴶", "9794": "鴹", "9795": "鵀", "9796": "鵄", "9797": "鵅", "9798": "鵔", "9799": "鵕", "9800": "鵙", "9801": "鵞", "9802": "鵳", "9803": "鵴", "9804": "鵶", "9805": "鵻", "9806": "鵽", "9807": "鶂", "9808": "鶃", "9809": "鶆", "9810": "鶋", "9811": "鶑", "9812": "鶢", "9813": "鶤", "9814": "鶵", "9815": "鷃", "9816": "鷇", "9817": "鷕", "9818": "鷘", "9819": "鷠", "9820": "鷮", "9821": "鷰", "9822": "鷱", "9823": "鷼", "9824": "鷾", "9825": "鸀", "9826": "鸃", "9827": "鸎", "9828": "鸐", "9829": "鸒", "9830": "鸓", "9831": "鸖", "9832": "鸜", "9833": "鸟", "9834": "鸠", "9835": "鸡", "9836": "鸢", "9837": "鸣", "9838": "鸤", "9839": "鸥", "9840": "鸦", "9841": "鸧", "9842": "鸨", "9843": "鸩", "9844": "鸪", "9845": "鸬", "9846": "鸭", "9847": "鸮", "9848": "鸯", "9849": "鸰", "9850": "鸱", "9851": "鸲", "9852": "鸳", "9853": "鸴", "9854": "鸶", "9855": "鸷", "9856": "鸸", "9857": "鸹", "9858": "鸺", "9859": "鸽", "9860": "鸾", "9861": "鸿", "9862": "鹁", "9863": "鹂", "9864": "鹃", "9865": "鹄", "9866": "鹅", "9867": "鹆", "9868": "鹇", "9869": "鹈", "9870": "鹉", "9871": "鹊", "9872": "鹌", "9873": "鹍", "9874": "鹎", "9875": "鹏", "9876": "鹐", "9877": "鹑", "9878": "鹒", "9879": "鹓", "9880": "鹔", "9881": "鹕", "9882": "鹖", "9883": "鹗", "9884": "鹘", "9885": "鹙", "9886": "鹚", "9887": "鹜", "9888": "鹞", "9889": "鹠", "9890": "鹡", "9891": "鹢", "9892": "鹣", "9893": "鹤", "9894": "鹥", "9895": "鹦", "9896": "鹧", "9897": "鹩", "9898": "鹪", "9899": "鹫", "9900": "鹬", "9901": "鹭", "9902": "鹯", "9903": "鹰", "9904": "鹱", "9905": "鹳", "9906": "鹴", "9907": "鹻", "9908": "鹾", "9909": "鹿", "9910": "麀", "9911": "麁", "9912": "麂", "9913": "麃", "9914": "麄", "9915": "麇", "9916": "麈", "9917": "麋", "9918": "麌", "9919": "麏", "9920": "麐", "9921": "麑", "9922": "麒", "9923": "麓", "9924": "麕", "9925": "麖", "9926": "麚", "9927": "麛", "9928": "麝", "9929": "麞", "9930": "麟", "9931": "麤", "9932": "麦", "9933": "麧", "9934": "麰", "9935": "麸", "9936": "麹", "9937": "麻", "9938": "麽", "9939": "麾", "9940": "黁", "9941": "黂", "9942": "黄", "9943": "黅", "9944": "黈", "9945": "黉", "9946": "黍", "9947": "黎", "9948": "黏", "9949": "黐", "9950": "黑", "9951": "黒", "9952": "黓", "9953": "黔", "9954": "黕", "9955": "黖", "9956": "默", "9957": "黙", "9958": "黛", "9959": "黜", "9960": "黝", "9961": "黟", "9962": "黠", "9963": "黡", "9964": "黤", "9965": "黥", "9966": "黦", "9967": "黧", "9968": "黩", "9969": "黪", "9970": "黫", "9971": "黬", "9972": "黭", "9973": "黮", "9974": "黯", "9975": "黰", "9976": "黳", "9977": "黻", "9978": "黼", "9979": "黾", "9980": "鼁", "9981": "鼃", "9982": "鼇", "9983": "鼈", "9984": "鼋", "9985": "鼌", "9986": "鼍", "9987": "鼎", "9988": "鼐", "9989": "鼒", "9990": "鼓", "9991": "鼔", "9992": "鼖", "9993": "鼗", "9994": "鼘", "9995": "鼙", "9996": "鼛", "9997": "鼜", "9998": "鼟", "9999": "鼠", "10000": "鼩", "10001": "鼪", "10002": "鼫", "10003": "鼬", "10004": "鼮", "10005": "鼯", "10006": "鼲", "10007": "鼷", "10008": "鼹", "10009": "鼻", "10010": "鼽", "10011": "鼾", "10012": "齁", "10013": "齅", "10014": "齈", "10015": "齐", "10016": "齑", "10017": "齓", "10018": "齖", "10019": "齚", "10020": "齞", "10021": "齢", "10022": "齸", "10023": "齽", "10024": "齿", "10025": "龀", "10026": "龁", "10027": "龂", "10028": "龃", "10029": "龄", "10030": "龆", "10031": "龈", "10032": "龉", "10033": "龊", "10034": "龋", "10035": "龌", "10036": "龏", "10037": "龙", "10038": "龚", "10039": "龛", "10040": "龞", "10041": "龟", "10042": "龠", "10043": "龢", "10044": "龦", "10045": "龿", "10046": "", "10047": "", "10048": "", "10049": "", "10050": "", "10051": "", "10052": "", "10053": "", "10054": "﨑", "10055": "！", "10056": "（", "10057": "）", "10058": "，", "10059": "：", "10060": "；", "10061": "？", "10062": "Ｂ", "10063": "［", "10064": "］", "10065": "𠇗", "10066": "𠉤", "10067": "𠋘", "10068": "𠋚", "10069": "𠌫", "10070": "𠌯", "10071": "𠎝", "10072": "𠘶", "10073": "𠙆", "10074": "𠜴", "10075": "𠠜", "10076": "𠡠", "10077": "𠤷", "10078": "𠬍", "10079": "𠯈", "10080": "𠯠", "10081": "𠰷", "10082": "𠴨", "10083": "𠴲", "10084": "𠴳", "10085": "𠵾", "10086": "𠷺", "10087": "𠹛", "10088": "𠺕", "10089": "𠻳", "10090": "𠽢", "10091": "𠾬", "10092": "𠾱", "10093": "𡄸", "10094": "𡇼", "10095": "𡋯", "10096": "𡌴", "10097": "𡎺", "10098": "𡏖", "10099": "𡏜", "10100": "𡏝", "10101": "𡐦", "10102": "𡒄", "10103": "𡚕", "10104": "𡝠", "10105": "𡞦", "10106": "𡡉", "10107": "𡡓", "10108": "𡩖", "10109": "𡰈", "10110": "𡱈", "10111": "𡴴", "10112": "𡵒", "10113": "𡶴", "10114": "𡷛", "10115": "𡷾", "10116": "𡸣", "10117": "𡸯", "10118": "𡺸", "10119": "𡻊", "10120": "𡻮", "10121": "𡻱", "10122": "𡼏", "10123": "𡼖", "10124": "𡼣", "10125": "𡼭", "10126": "𡽏", "10127": "𡽱", "10128": "𡾊", "10129": "𡾋", "10130": "𡾰", "10131": "𡾹", "10132": "𡾼", "10133": "𡿃", "10134": "𡿗", "10135": "𢂹", "10136": "𢄙", "10137": "𢇁", "10138": "𢈁", "10139": "𢈪", "10140": "𢋙", "10141": "𢕟", "10142": "𢖟", "10143": "𢗒", "10144": "𢗞", "10145": "𢗳", "10146": "𢙏", "10147": "𢙐", "10148": "𢟉", "10149": "𢟸", "10150": "𢠢", "10151": "𢡟", "10152": "𢢀", "10153": "𢧕", "10154": "𢫬", "10155": "𢬍", "10156": "𢬵", "10157": "𢭦", "10158": "𢶉", "10159": "𢷈", "10160": "𢸗", "10161": "𢹔", "10162": "𢼮", "10163": "𢽾", "10164": "𢾅", "10165": "𣂏", "10166": "𣃁", "10167": "𣃼", "10168": "𣄢", "10169": "𣅿", "10170": "𣆟", "10171": "𣊓", "10172": "𣊟", "10173": "𣊪", "10174": "𣋉", "10175": "𣍯", "10176": "𣍿", "10177": "𣏾", "10178": "𣐕", "10179": "𣒌", "10180": "𣓨", "10181": "𣔻", "10182": "𣕕", "10183": "𣗊", "10184": "𣗋", "10185": "𣗖", "10186": "𣙁", "10187": "𣙙", "10188": "𣙢", "10189": "𣚦", "10190": "𣞷", "10191": "𣟄", "10192": "𣟤", "10193": "𣡵", "10194": "𣢗", "10195": "𣤮", "10196": "𣨼", "10197": "𣩄", "10198": "𣭷", "10199": "𣰦", "10200": "𣰽", "10201": "𣲗", "10202": "𣵡", "10203": "𣶂", "10204": "𣶈", "10205": "𣶫", "10206": "𣷡", "10207": "𣸣", "10208": "𣸩", "10209": "𣹜", "10210": "𣺫", "10211": "𣺻", "10212": "𣺼", "10213": "𣼩", "10214": "𣽷", "10215": "𣾜", "10216": "𣾴", "10217": "𤁳", "10218": "𤂳", "10219": "𤃃", "10220": "𤃩", "10221": "𤄓", "10222": "𤅈", "10223": "𤅣", "10224": "𤆡", "10225": "𤇊", "10226": "𤇹", "10227": "𤈶", "10228": "𤌭", "10229": "𤍿", "10230": "𤎥", "10231": "𤏡", "10232": "𤐣", "10233": "𤓰", "10234": "𤜱", "10235": "𤞣", "10236": "𤞤", "10237": "𤟤", "10238": "𤠋", "10239": "𤠔", "10240": "𤡑", "10241": "𤢹", "10242": "𤣎", "10243": "𤤐", "10244": "𤤺", "10245": "𤧚", "10246": "𤩪", "10247": "𤩽", "10248": "𤪌", "10249": "𤫶", "10250": "𤬁", "10251": "𤬊", "10252": "𤭁", "10253": "𤮕", "10254": "𤮧", "10255": "𤰳", "10256": "𤱶", "10257": "𤲬", "10258": "𤴯", "10259": "𤶬", "10260": "𤸷", "10261": "𤾖", "10262": "𥄴", "10263": "𥈅", "10264": "𥈭", "10265": "𥉂", "10266": "𥉻", "10267": "𥊍", "10268": "𥊑", "10269": "𥋇", "10270": "𥋝", "10271": "𥎝", "10272": "𥏐", "10273": "𥐊", "10274": "𥐟", "10275": "𥐪", "10276": "𥐻", "10277": "𥓂", "10278": "𥕂", "10279": "𥕕", "10280": "𥜥", "10281": "𥝧", "10282": "𥡥", "10283": "𥥈", "10284": "𥦖", "10285": "𥦷", "10286": "𥨆", "10287": "𥩟", "10288": "𥫗", "10289": "𥫽", "10290": "𥬞", "10291": "𥬠", "10292": "𥮘", "10293": "𥮜", "10294": "𥮾", "10295": "𥯅", "10296": "𥰭", "10297": "𥱼", "10298": "𥲤", "10299": "𥳇", "10300": "𥳞", "10301": "𥳽", "10302": "𥶠", "10303": "𥷑", "10304": "𥹋", "10305": "𥺌", "10306": "𥻿", "10307": "𥾝", "10308": "𥾣", "10309": "𦁤", "10310": "𦂌", "10311": "𦈌", "10312": "𦈏", "10313": "𦈐", "10314": "𦈔", "10315": "𦈜", "10316": "𦈡", "10317": "𦊔", "10318": "𦌊", "10319": "𦌒", "10320": "𦍠", "10321": "𦎔", "10322": "𦎬", "10323": "𦏪", "10324": "𦑉", "10325": "𦕈", "10326": "𦚧", "10327": "𦝰", "10328": "𦝼", "10329": "𦞂", "10330": "𦞦", "10331": "𦟘", "10332": "𦟛", "10333": "𦠆", "10334": "𦡂", "10335": "𦢏", "10336": "𦥨", "10337": "𦧇", "10338": "𦧈", "10339": "𦨣", "10340": "𦨧", "10341": "𦨩", "10342": "𦨴", "10343": "𦨻", "10344": "𦩘", "10345": "𦪇", "10346": "𦫃", "10347": "𦬻", "10348": "𦭵", "10349": "𦮎", "10350": "𦯶", "10351": "𦰏", "10352": "𦳏", "10353": "𦵧", "10354": "𦶇", "10355": "𦶜", "10356": "𦶟", "10357": "𦸈", "10358": "𦺆", "10359": "𦾏", "10360": "𦾱", "10361": "𦾾", "10362": "𧁾", "10363": "𧇠", "10364": "𧈭", "10365": "𧈼", "10366": "𧉈", "10367": "𧉒", "10368": "𧉧", "10369": "𧉬", "10370": "𧉸", "10371": "𧌁", "10372": "𧌑", "10373": "𧍗", "10374": "𧍙", "10375": "𧍧", "10376": "𧍪", "10377": "𧎜", "10378": "𧎬", "10379": "𧎾", "10380": "𧏖", "10381": "𧏗", "10382": "𧏘", "10383": "𧐔", "10384": "𧑅", "10385": "𧒭", "10386": "𧔢", "10387": "𧕅", "10388": "𧕋", "10389": "𧘈", "10390": "𧚞", "10391": "𧜭", "10392": "𧞨", "10393": "𧣴", "10394": "𧣹", "10395": "𧤏", "10396": "𧤺", "10397": "𧤾", "10398": "𧥄", "10399": "𧥆", "10400": "𧩫", "10401": "𧪞", "10402": "𧬱", "10403": "𧮪", "10404": "𧯃", "10405": "𧳽", "10406": "𧽼", "10407": "𧾏", "10408": "𧾩", "10409": "𧿧", "10410": "𧿶", "10411": "𨀁", "10412": "𨁝", "10413": "𨂂", "10414": "𨃚", "10415": "𨃤", "10416": "𨃪", "10417": "𨄄", "10418": "𨅛", "10419": "𨇨", "10420": "𨈀", "10421": "𨊵", "10422": "𨋗", "10423": "𨋮", "10424": "𨌠", "10425": "𨍇", "10426": "𨍋", "10427": "𨍥", "10428": "𨎹", "10429": "𨏈", "10430": "𨔤", "10431": "𨗨", "10432": "𨗳", "10433": "𨙅", "10434": "𨚩", "10435": "𨝸", "10436": "𨠑", "10437": "𨠵", "10438": "𨥁", "10439": "𨧫", "10440": "𨩮", "10441": "𨰿", "10442": "𨱂", "10443": "𨱄", "10444": "𨱊", "10445": "𨱎", "10446": "𨱏", "10447": "𨱔", "10448": "𨵦", "10449": "𨶻", "10450": "𨸒", "10451": "𨹮", "10452": "𨼾", "10453": "𨽜", "10454": "𩃎", "10455": "𩃗", "10456": "𩃟", "10457": "𩃱", "10458": "𩅔", "10459": "𩅝", "10460": "𩅦", "10461": "𩅰", "10462": "𩅸", "10463": "𩆎", "10464": "𩆓", "10465": "𩉾", "10466": "𩊓", "10467": "𩌅", "10468": "𩍐", "10469": "𩍶", "10470": "𩏽", "10471": "𩕳", "10472": "𩖨", "10473": "𩘶", "10474": "𩙁", "10475": "𩙖", "10476": "𩙪", "10477": "𩙫", "10478": "𩙮", "10479": "𩛿", "10480": "𩜾", "10481": "𩝊", "10482": "𩞉", "10483": "𩟿", "10484": "𩠇", "10485": "𩢍", "10486": "𩦺", "10487": "𩧪", "10488": "𩧭", "10489": "𩨈", "10490": "𩨍", "10491": "𩨨", "10492": "𩩉", "10493": "𩪸", "10494": "𩬊", "10495": "𩬔", "10496": "𩭪", "10497": "𩭹", "10498": "𩮜", "10499": "𩮰", "10500": "𩰘", "10501": "𩰮", "10502": "𩲑", "10503": "𩲞", "10504": "𩵖", "10505": "𩶆", "10506": "𩺃", "10507": "𩻣", "10508": "𩼈", "10509": "𩽼", "10510": "𩾁", "10511": "𩾈", "10512": "𩾊", "10513": "𩾐", "10514": "𩾨", "10515": "𪀉", "10516": "𪀸", "10517": "𪁟", "10518": "𪃿", "10519": "𪄚", "10520": "𪅝", "10521": "𪆙", "10522": "𪇄", "10523": "𪈴", "10524": "𪈺", "10525": "𪉃", "10526": "𪉄", "10527": "𪉑", "10528": "𪋤", "10529": "𪋯", "10530": "𪍣", "10531": "𪎊", "10532": "𪎭", "10533": "𪑩", "10534": "𪑮", "10535": "𪑿", "10536": "𪒘", "10537": "𪔔", "10538": "𪕋", "10539": "𪕌", "10540": "𪕍", "10541": "𪚫", "10542": "𪛊", "10543": "𪛌", "10544": "𪜎", "10545": "𪟝", "10546": "𪡋", "10547": "𪡧", "10548": "𪢮", "10549": "𪣻", "10550": "𪤋", "10551": "𪧀", "10552": "𪧘", "10553": "𪨗", "10554": "𪨷", "10555": "𪩘", "10556": "𪩸", "10557": "𪪞", "10558": "𪫧", "10559": "𪫺", "10560": "𪭢", "10561": "𪭾", "10562": "𪱳", "10563": "𪲔", "10564": "𪴙", "10565": "𪵑", "10566": "𪵣", "10567": "𪶒", "10568": "𪷽", "10569": "𪸕", "10570": "𪸩", "10571": "𪹳", "10572": "𪻐", "10573": "𪼿", "10574": "𪾢", "10575": "𪾣", "10576": "𪾦", "10577": "𪾸", "10578": "𪿪", "10579": "𪿫", "10580": "𫀬", "10581": "𫁂", "10582": "𫁟", "10583": "𫂈", "10584": "𫄙", "10585": "𫄛", "10586": "𫄟", "10587": "𫄠", "10588": "𫄥", "10589": "𫄧", "10590": "𫄨", "10591": "𫄫", "10592": "𫄬", "10593": "𫄳", "10594": "𫄴", "10595": "𫄸", "10596": "𫅗", "10597": "𫇛", "10598": "𫇢", "10599": "𫇭", "10600": "𫇴", "10601": "𫈉", "10602": "𫈟", "10603": "𫈵", "10604": "𫉁", "10605": "𫉄", "10606": "𫊻", "10607": "𫋇", "10608": "𫋌", "10609": "𫋹", "10610": "𫋻", "10611": "𫌇", "10612": "𫌨", "10613": "𫍙", "10614": "𫍡", "10615": "𫍢", "10616": "𫍦", "10617": "𫍬", "10618": "𫍯", "10619": "𫍲", "10620": "𫍻", "10621": "𫍽", "10622": "𫍾", "10623": "𫎆", "10624": "𫎩", "10625": "𫎪", "10626": "𫎱", "10627": "𫎺", "10628": "𫏆", "10629": "𫏋", "10630": "𫏐", "10631": "𫏕", "10632": "𫏨", "10633": "𫐄", "10634": "𫐆", "10635": "𫐇", "10636": "𫐈", "10637": "𫐉", "10638": "𫐌", "10639": "𫐐", "10640": "𫐒", "10641": "𫐕", "10642": "𫐖", "10643": "𫐘", "10644": "𫓧", "10645": "𫓩", "10646": "𫓪", "10647": "𫓰", "10648": "𫓶", "10649": "𫓹", "10650": "𫓾", "10651": "𫔂", "10652": "𫔇", "10653": "𫔎", "10654": "𫔔", "10655": "𫔯", "10656": "𫔶", "10657": "𫕥", "10658": "𫖃", "10659": "𫖇", "10660": "𫖒", "10661": "𫖔", "10662": "𫖮", "10663": "𫖯", "10664": "𫖳", "10665": "𫖹", "10666": "𫗇", "10667": "𫗊", "10668": "𫗋", "10669": "𫗕", "10670": "𫗞", "10671": "𫗠", "10672": "𫗢", "10673": "𫗣", "10674": "𫗥", "10675": "𫗦", "10676": "𫗧", "10677": "𫗪", "10678": "𫗮", "10679": "𫗰", "10680": "𫗴", "10681": "𫗵", "10682": "𫘝", "10683": "𫘞", "10684": "𫘟", "10685": "𫘣", "10686": "𫘤", "10687": "𫘦", "10688": "𫘧", "10689": "𫘨", "10690": "𫘭", "10691": "𫚈", "10692": "𫚋", "10693": "𫚌", "10694": "𫚔", "10695": "𫚖", "10696": "𫚙", "10697": "𫚢", "10698": "𫚣", "10699": "𫚥", "10700": "𫚭", "10701": "𫛛", "10702": "𫛝", "10703": "𫛞", "10704": "𫛢", "10705": "𫛣", "10706": "𫛤", "10707": "𫛥", "10708": "𫛩", "10709": "𫛪", "10710": "𫛳", "10711": "𫛴", "10712": "𫛶", "10713": "𫛸", "10714": "𫜁", "10715": "𫜃", "10716": "𫜪", "10717": "𫜬", "10718": "𫜰", "10719": "𫜳", "10720": "𫝮", "10721": "𫞚", "10722": "𫞩", "10723": "𫟃", "10724": "𫟹", "10725": "𫠆", "10726": "𫠋", "10727": "𫠐", "10728": "𫠜", "10729": "𫢸", "10730": "𫭟", "10731": "𫮃", "10732": "𫰛", "10733": "𫶇", "10734": "𫷷", "10735": "𬀩", "10736": "𬀪", "10737": "𬂩", "10738": "𬄭", "10739": "𬇹", "10740": "𬊈", "10741": "𬊤", "10742": "𬊳", "10743": "𬋖", "10744": "𬍛", "10745": "𬒈", "10746": "𬗖", "10747": "𬘓", "10748": "𬘔", "10749": "𬘘", "10750": "𬘡", "10751": "𬘫", "10752": "𬘬", "10753": "𬘭", "10754": "𬙂", "10755": "𬙊", "10756": "𬙋", "10757": "𬟽", "10758": "𬣙", "10759": "𬣞", "10760": "𬤇", "10761": "𬤊", "10762": "𬨂", "10763": "𬨎", "10764": "𬪩", "10765": "𬬩", "10766": "𬬭", "10767": "𬬮", "10768": "𬬸", "10769": "𬬻", "10770": "𬭁", "10771": "𬭎", "10772": "𬭚", "10773": "𬭤", "10774": "𬭭", "10775": "𬭼", "10776": "𬮱", "10777": "𬮿", "10778": "𬯀", "10779": "𬯎", "10780": "𬱖", "10781": "𬱟", "10782": "𬳵", "10783": "𬳶", "10784": "𬳽", "10785": "𬳿", "10786": "𬴂", "10787": "𬴃", "10788": "𬴊", "10789": "𬵩", "10790": "𬶋", "10791": "𬶍", "10792": "𬸘", "10793": "𬸚", "10794": "𬸣", "10795": "𬸦", "10796": "𬸯", "10797": "𬹼", "10798": "𬺈", "10799": "𬺓", "10800": "𬾠", "10801": "𭘵", "10802": "𭣦", "10803": "𭮷", "10804": "𭲟", "10805": "𭼩", "10806": "𮁅", "10807": "𮑉", "10808": "𮕪", "10809": "𮛬", "10810": "𮜿", "10811": "𮞒", "10812": "𮪃", "10813": "𮫃", "10814": "𰬸", "10815": "𰾄", "10816": "。\n", "10817": "。\n\n", "10818": "》\n", "10819": "。\n\n《", "10820": " 其", "10821": "  其", "10822": "首  其", "10823": "》\n宋", "10824": "》\n王", "10825": "）。\n\n《", "10826": "。\n（", "10827": "，不", "10828": "》卷", "10829": "祁\n", "10830": "》\n宋祁\n", "10831": "二》\n", "10832": "一》\n", "10833": "，一", "10834": "。\n不", "10835": "朋\n", "10836": "十朋\n", "10837": "》\n王十朋\n", "10838": "，何", "10839": "。\n我", "10840": "》\n释", "10841": "二首  其", "10842": "。\n一", "10843": "人，", "10844": "》\n张", "10845": "，风", "10846": "，天", "10847": "，无", "10848": "。\n\n《送", "10849": "》\n李", "10850": "。\n）。\n\n《", "10851": "日，", "10852": "勋\n", "10853": "。\n\n《和", "10854": "子，", "10855": "曹勋\n", "10856": "适\n", "10857": "作「", "10858": "洪适\n", "10859": "。\n何", "10860": "庠\n", "10861": "》\n宋庠\n", "10862": "事，", "10863": "，山", "10864": "。\n（见", "10865": "二十", "10866": "次韵", "10867": "」）", "10868": "，万", "10869": "》\n洪适\n", "10870": "肃\n", "10871": "》\n陈", "10872": "远，", "10873": "去，", "10874": "。\n天", "10875": "客，", "10876": "，未", "10877": "》\n曹勋\n", "10878": "印肃\n", "10879": "，云", "10880": "，此", "10881": "十首  其", "10882": "，清", "10883": "。\n山", "10884": "来，", "10885": "地，", "10886": "》\n王之", "10887": "。\n人", "10888": "。\n\n《题", "10889": "》\n刘", "10890": "月，", "10891": "意，", "10892": "人。\n", "10893": "。\n\n《次韵", "10894": "，高", "10895": "，人", "10896": "子翚", "10897": "无尽", "10898": "子翚\n", "10899": "与义", "10900": "，千", "10901": "。\n此", "10902": "颂 ", "10903": "不可", "10904": "宗\n", "10905": "与义\n", "10906": "，春", "10907": "，归", "10908": "三首  其", "10909": "平生", "10910": "金刚", "10911": "。\n有", "10912": "嵲\n", "10913": "处，", "10914": "晁公", "10915": "。\n风", "10916": "溯\n", "10917": "晁公溯\n", "10918": "道\n", "10919": "下，", "10920": "。\n君", "10921": "水，", "10922": "随机", "10923": "  其一", "10924": "，相", "10925": "。\n\n《金刚", "10926": "无尽颂 ", "10927": "随机无尽颂 ", "10928": "。\n\n《金刚随机无尽颂 ", "10929": "。\n谁", "10930": "吴芾", "10931": "吴芾\n", "10932": "。\n自", "10933": "》\n王之道\n", "10934": "》\n朱", "10935": "路，", "10936": "雨，", "10937": "》\n释印肃\n", "10938": "。\n\n《山", "10939": "》\n刘子翚\n", "10940": "首 ", "10941": "分第", "10942": "，今", "10943": "，谁", "10944": "》\n胡", "10945": "。\n（见《", "10946": "，长", "10947": "间，", "10948": "，心", "10949": "》\n晁公溯\n", "10950": "。\n（《", "10951": "天。\n", "10952": "里，", "10953": "》\n陈与义\n", "10954": "心，", "10955": "长。\n", "10956": "。\n三", "10957": "咏 ", "10958": "乐，", "10959": "三十", "10960": "  其一》\n", "10961": "。\n今", "10962": "》\n张嵲\n", "10963": "在，", "10964": "。\n相", "10965": "  其二》\n", "10966": "二首  其一》\n", "10967": "太宗\n", "10968": "》\n宋太宗\n", "10969": "杂诗", "10970": "色，", "10971": "道，", "10972": "风。\n", "10973": "上，", "10974": "时。\n", "10975": "。\n\n《山居", "10976": "（《", "10977": "，三", "10978": "。\n清", "10979": "二首  其二》\n", "10980": "外，", "10981": "春。\n", "10982": "老，", "10983": "不详", "10984": "中，", "10985": "明。\n", "10986": "不详\n", "10987": "时，", "10988": "。\n未", "10989": "》）。\n\n《", "10990": "新。\n", "10991": "。\n归", "10992": "。\n高", "10993": "，江", "10994": "酒，", "10995": "集》卷", "10996": "，日", "10997": "，有", "10998": "声。\n", "10999": "十二", "11000": "见，", "11001": "，为", "11002": "秋。\n", "11003": "徐铉", "11004": "。\n吾", "11005": "。\n无", "11006": "徐铉\n", "11007": "九十首  其", "11008": "。\n日", "11009": "杂诗九十首  其", "11010": "。\n\n《山居杂诗九十首  其", "11011": "，寒", "11012": "。\n但", "11013": "。\n岂", "11014": "，时", "11015": "。\n云", "11016": "》\n吴芾\n", "11017": "士，", "11018": "）（", "11019": "，我", "11020": "  其三", "11021": "深。\n", "11022": "，终", "11023": "。\n\n《杂", "11024": "诗 ", "11025": "，秋", "11026": "，自", "11027": "。\n老", "11028": "。\n行", "11029": "，幽", "11030": "中。\n", "11031": "清。\n", "11032": "，中", "11033": "，空", "11034": "》\n徐铉\n", "11035": "生。\n", "11036": "行。\n", "11037": "，行", "11038": "》作「", "11039": "后，", "11040": "四首  其", "11041": "心。\n", "11042": "流。\n", "11043": "山，", "11044": "松\n", "11045": "开。\n", "11046": "浩\n", "11047": "，吾", "11048": "同前", "11049": "权\n", "11050": "，花", "11051": "  其二", "11052": "史浩\n", "11053": "处权\n", "11054": "年。\n", "11055": "情。\n", "11056": "有余", "11057": "逍遥", "11058": "。\n愿", "11059": "。\n时", "11060": "。\n大", "11061": "不知", "11062": "来。\n", "11063": "者，", "11064": "，飞", "11065": "寅\n", "11066": "、《", "11067": "游。\n", "11068": "石\n", "11069": "，岂", "11070": "。\n故", "11071": "。\n如", "11072": "。\n\n《偈", "11073": "。\n（同前", "11074": "树，", "11075": "香。\n", "11076": "。\n长", "11077": "按：", "11078": "山。\n", "11079": "度\n", "11080": "》\n不详\n", "11081": "。\n\n《挽", "11082": "语，", "11083": "。\n明", "11084": "。\n欲", "11085": "白云", "11086": "梦，", "11087": "游，", "11088": "。\n春", "11089": "。\n平生", "11090": "》\n李处权\n", "11091": "千里", "11092": "晚，", "11093": "。\n世", "11094": "。\n青", "11095": "草木", "11096": "录》卷", "11097": "，宁", "11098": "，老", "11099": "，青", "11100": "十八", "11101": "黄公", "11102": "然。\n", "11103": "。\n\n《寄", "11104": "挽诗", "11105": "黄公度\n", "11106": "空。\n", "11107": "先生", "11108": "出，", "11109": "时行", "11110": "》\n朱松\n", "11111": "石，", "11112": "》\n史浩\n", "11113": "尘。\n", "11114": "。\n\n《颂", "11115": "尽，", "11116": "，白", "11117": "冯时行", "11118": "气，", "11119": "。\n若", "11120": "冯时行\n", "11121": "挽词", "11122": "间。\n", "11123": "，孤", "11124": "，诗", "11125": "。\n\n《赠", "11126": "（一", "11127": "。\n万", "11128": "。\n\n《春", "11129": "花。\n", "11130": "，新", "11131": "，更", "11132": "。\n\n《秋", "11133": "唐诗", "11134": "寒。\n", "11135": "归。\n", "11136": "，犹", "11137": "。\n小", "11138": "。\n水", "11139": "）（按：", "11140": "节，", "11141": "风，", "11142": "，所", "11143": "书。\n", "11144": "古今", "11145": "，还", "11146": "，金", "11147": "  其四", "11148": "得，", "11149": "，来", "11150": "。\n东", "11151": "。\n当", "11152": "。\n江", "11153": "》\n胡寅\n", "11154": "。\n\n《颂古", "11155": "不能", "11156": "九成", "11157": "使君", "11158": "落，", "11159": "。\n所", "11160": "上人", "11161": "，百", "11162": "。\n夜", "11163": "歌辞", "11164": "盘洲", "11165": "重，", "11166": "。\n更", "11167": "岁月", "11168": "。\n虽", "11169": "。\n\n《游", "11170": "） ", "11171": "。\n独", "11172": "缘识", "11173": "雪，", "11174": "韵上", "11175": "。\n坐", "11176": "无名", "11177": "，林", "11178": "。\n新", "11179": "。\n朝", "11180": "杂韵上", "11181": "，四", "11182": "》\n林", "11183": "。\n\n《盘洲", "11184": "（一作「", "11185": "杂韵上 ", "11186": "。\n\n《盘洲杂韵上 ", "11187": "十一", "11188": "。\n\n《缘识", "11189": "》\n李石\n", "11190": "九成\n", "11191": "多。\n", "11192": "天地", "11193": "。\n幽", "11194": "《全", "11195": "梵志", "11196": "。\n客", "11197": "。\n是", "11198": "。\n空", "11199": "》\n释慧", "11200": "国，", "11201": "悠悠", "11202": "，大", "11203": "。\n去", "11204": "。\n野", "11205": "万里", "11206": "久，", "11207": "五首  其", "11208": "光。\n", "11209": "合，", "11210": "干\n", "11211": "此诗", "11212": "风吹", "11213": "句，", "11214": "白，", "11215": "竹，", "11216": "，可", "11217": "，生", "11218": "。\n心", "11219": "。\n忽", "11220": "好，", "11221": "（题", "11222": "，坐", "11223": "，神", "11224": "。\n\n《逍遥", "11225": "何所", "11226": "元干\n", "11227": "前。\n", "11228": "灼\n", "11229": "翌\n", "11230": "。\n从", "11231": "。\n公", "11232": "》\n王灼\n", "11233": "十四", "11234": "名。\n", "11235": "回首", "11236": "，君", "11237": "。\n道", "11238": "》\n冯时行\n", "11239": "》\n王梵志", "11240": "。\n\n《逍遥咏", "11241": "》\n王梵志\n", "11242": "烟。\n", "11243": "，亦", "11244": "，夜", "11245": "，如", "11246": "，真", "11247": "。\n千", "11248": "本《", "11249": "飞。\n", "11250": "。\n四", "11251": "》\n邓", "11252": "。\n\n《杂咏", "11253": "。\n\n《偈颂", "11254": "无名氏", "11255": "（题拟", "11256": "书，", "11257": "乾坤", "11258": "何处", "11259": "胡为", "11260": "，朝", "11261": "，松", "11262": "。\n中", "11263": "。\n。\n\n《", "11264": "歌辞 ", "11265": "明月", "11266": "百年", "11267": "身。\n", "11268": "近，", "11269": "，莫", "11270": "《全唐诗", "11271": "云。\n", "11272": "同。\n", "11273": "衣。\n", "11274": "，身", "11275": "，远", "11276": "下 ", "11277": "功名", "11278": "）》\n", "11279": "。\n生", "11280": "。\n白", "11281": "》\n黄公度\n", "11282": "。\n\n《杂咏下 ", "11283": "归，", "11284": "籀\n", "11285": "至今", "11286": "苏籀\n", "11287": "足，", "11288": "，深", "11289": "三首  其三", "11290": "无名氏\n", "11291": "宿\n", "11292": "徘徊", "11293": "见寄", "11294": "，余", "11295": "，得", "11296": "，黄", "11297": "。\n况", "11298": "。\n安", "11299": "。\n秋", "11300": "。\n西", "11301": "起，", "11302": "，烟", "11303": "。\n方", "11304": "五言", "11305": "十五", "11306": "十年", "11307": "夜，", "11308": "寂寞", "11309": "，东", "11310": "。\n寒", "11311": "。\n远", "11312": "]（", "11313": "物，", "11314": "，文", "11315": "。\n为", "11316": "。\n却", "11317": "。\n古", "11318": "。\n已", "11319": "》\n朱翌\n", "11320": "亦何", "11321": "天下", "11322": "桃李", "11323": "见《", "11324": "道中", "11325": "，流", "11326": "。\n向", "11327": "。\n惟", "11328": "。\n人生", "11329": "一首", "11330": "言，", "11331": "集》", "11332": "，安", "11333": "，溪", "11334": "。\n上", "11335": "。\n神", "11336": "。\n诗", "11337": "云，", "11338": "五灯", "11339": "会元", "11340": "动，", "11341": "十三", "11342": "日月", "11343": "，已", "11344": "，聊", "11345": "。\n可", "11346": "。\n何当", "11347": "五灯会元", "11348": "丞相", "11349": "人。\n\n《", "11350": "，下", "11351": "，南", "11352": "，应", "11353": "，方", "11354": "》\n张九成\n", "11355": "会稽", "11356": "凉。\n", "11357": "成。\n", "11358": "诗，", "11359": "，仙", "11360": "，当", "11361": "，欲", "11362": "，五", "11363": "，同", "11364": "，霜", "11365": "。\n地", "11366": "\n一", "11367": "十七", "11368": "阴。\n", "11369": "，玉", "11370": "。\n南", "11371": "。\n要", "11372": "。\n黄", "11373": "二首  其一", "11374": "眼，", "11375": "诗》\n", "11376": "释印肃\n", "11377": "，但", "11378": "，独", "11379": "。\n文", "11380": "。\n\n《书", "11381": "不见", "11382": "，水", "11383": "城。\n", "11384": "故人", "11385": "渊明", "11386": "门。\n", "11387": "，世", "11388": "，况", "11389": "，名", "11390": "，微", "11391": "，非", "11392": "。\n因", "11393": "余。\n", "11394": "家。\n", "11395": "风雨", "11396": "（幷", "11397": "。\n晚", "11398": "分第二十", "11399": "不自", "11400": "九日", "11401": "亲。\n", "11402": "棣\n", "11403": "浮云", "11404": "红。\n", "11405": "行，", "11406": "迟。\n", "11407": "力，", "11408": "回。\n", "11409": "手，", "11410": "理，", "11411": "知。\n", "11412": "空\n", "11413": "轻。\n", "11414": "，西", "11415": "友，", "11416": "愁。\n", "11417": "生，", "11418": "登临", "11419": "，重", "11420": "。\n尚", "11421": "。\n\n《过", "11422": "二首  其二", "11423": "书卷", "11424": "急，", "11425": "，从", "11426": "，游", "11427": "。\n他", "11428": "。\n出", "11429": "。\n石", "11430": "》卷二", "11431": "（幷序", "11432": "会，", "11433": "息，", "11434": "梅花", "11435": "留。\n", "11436": "诸公", "11437": "，虚", "11438": "。\n寄", "11439": "。\n开", "11440": "。\n\n《诗", "11441": "不相", "11442": "主人", "11443": "即事", "11444": "，先", "11445": "，正", "11446": "，香", "11447": "。\n得", "11448": "。\n遥", "11449": "居。\n", "11450": "影，", "11451": "无一", "11452": "深\n", "11453": "秀，", "11454": "闲。\n", "11455": "靖\n", "11456": "。\n回", "11457": "》\n胡宿\n", "11458": "为韵", "11459": "富贵", "11460": "纷纷", "11461": "苦，", "11462": "，去", "11463": "。\n莫", "11464": "三首  其二》\n", "11465": "三首  其一》\n", "11466": "余靖\n", "11467": "别，", "11468": "方\n", "11469": "玉，", "11470": "草，", "11471": "马，", "11472": "，于", "11473": "，岁", "11474": "，龙", "11475": "。\n子", "11476": "。\n如何", "11477": "》、《", "11478": "中有", "11479": "以上", "11480": "曾协", "11481": "江南", "11482": "至，", "11483": "还。\n", "11484": "造化", "11485": "那知", "11486": "，开", "11487": "。\n五", "11488": "。\n前", "11489": "。\n月", "11490": "。\n飞", "11491": "丘壑", "11492": "，其", "11493": "，知", "11494": "。\n好", "11495": "。\n孤", "11496": "。\n终", "11497": "。\n我来", "11498": "》\n张元干\n", "11499": "曾协\n", "11500": "君子", "11501": "少年", "11502": "引《", "11503": "德，", "11504": "春风", "11505": "本无", "11506": "浚\n", "11507": "，分", "11508": "，初", "11509": "，声", "11510": "。\n其", "11511": "。\n玉", "11512": "。\n归来", "11513": "》\n邓深\n", "11514": "。\n向来", "11515": "不得", "11516": "八首  其", "11517": "学士", "11518": "尚书", "11519": "旧，", "11520": "杂咏 ", "11521": "枝。\n", "11522": "第一", "11523": "，临", "11524": "，群", "11525": "。\n会", "11526": "》\n余靖\n", "11527": "。\n\n《李", "11528": "  其五", "11529": "，万里", "11530": "世，", "11531": "俯仰", "11532": "同书卷", "11533": "境，", "11534": "如此", "11535": "姿，", "11536": "灯录", "11537": "门，", "11538": "，与", "11539": "。\n嗟", "11540": "。\n昔", "11541": "。\n流", "11542": "偶成", "11543": "断，", "11544": "花，", "11545": "范浚\n", "11546": "迹，", "11547": "，出", "11548": "，明", "11549": "，门", "11550": "。\n林", "11551": "》\n苏籀\n", "11552": "。\n不知", "11553": "叶，", "11554": "张嵲\n", "11555": "性，", "11556": "落日", "11557": "，便", "11558": "。\n余", "11559": "。\n家", "11560": "。\n烟", "11561": "。\n群", "11562": "。\n身", "11563": "今日", "11564": "发，", "11565": "古，", "11566": "寻。\n", "11567": "山中", "11568": "微。\n", "11569": "有感", "11570": "泉。\n", "11571": "萧萧", "11572": "，小", "11573": "，故", "11574": "。\n兹", "11575": "。\n既", "11576": "。\n）", "11577": "（幷序） ", "11578": "之\n", "11579": "侍郎", "11580": "六十二", "11581": "夕阳", "11582": "尘土", "11583": "我，", "11584": "曲，", "11585": "有，", "11586": "读书", "11587": "，前", "11588": "传。\n", "11589": "作诗", "11590": "复何", "11591": "山水", "11592": "志》", "11593": "无所", "11594": "林。\n", "11595": "芙蓉", "11596": "边。\n", "11597": "道世", "11598": "长，", "11599": "集，", "11600": "，多", "11601": "，愁", "11602": "。\n九", "11603": "。\n二", "11604": "。\n酒", "11605": "。\n\n《宿", "11606": "仙。\n", "11607": "坐，", "11608": "堂堂", "11609": "天台", "11610": "年，", "11611": "志》卷", "11612": "悠然", "11613": "纵横", "11614": "贤。\n", "11615": "静，", "11616": "颂六十二", "11617": "。\n岁", "11618": "《全唐诗》卷", "11619": "道世\n", "11620": "颂六十二首 ", "11621": "不敢", "11622": "不足", "11623": "公，", "11624": "头。\n", "11625": "扁舟", "11626": "望\n", "11627": "殷勤", "11628": "江湖", "11629": "陈与义\n", "11630": "，光", "11631": "，家", "11632": "，忽", "11633": "。\n初", "11634": "。\n微", "11635": "。\n或", "11636": "。\n海", "11637": "。\n王", "11638": "。\n重", "11639": "。\n金", "11640": "》\n杜", "11641": "》\n王铚", "11642": "不成", "11643": "十六", "11644": "大夫", "11645": "夫人", "11646": "峥嵘", "11647": "景德", "11648": "润，", "11649": "秋风", "11650": "笑，", "11651": "顾我", "11652": "，端", "11653": "。\n雨", "11654": "。\n龙", "11655": "。\n\n《与", "11656": "》\n王之望\n", "11657": "》\n释慧空\n", "11658": "。\n\n《逍遥咏  其一", "11659": "（题拟）》\n", "11660": "》\n王铚\n", "11661": "」，", "11662": "东南", "11663": "兄弟", "11664": "光庭", "11665": "兴宗\n", "11666": "员兴宗\n", "11667": "如许", "11668": "期。\n", "11669": "木，", "11670": "正觉", "11671": "用，", "11672": "皇帝", "11673": "胸中", "11674": "，年", "11675": "，月", "11676": "，气", "11677": "，轻", "11678": "。\n举", "11679": "。\n深", "11680": "》\n郑", "11681": "，何处", "11682": "》\n李若", "11683": "。\n何时", "11684": "千载", "11685": "古人", "11686": "四十", "11687": "寒食", "11688": "楼。\n", "11689": "秀才", "11690": "邂逅", "11691": "难。\n", "11692": "，将", "11693": "。\n宁", "11694": "。\n应", "11695": "。\n斯", "11696": "。\n松", "11697": "。\n游", "11698": "。\n犹", "11699": "。\n百", "11700": "景德传", "11701": "》。\n", "11702": "南山", "11703": "太平", "11704": "宪\n", "11705": "尘埃", "11706": "志，", "11707": "悲。\n", "11708": "曲歌辞 ", "11709": "池上", "11710": "海，", "11711": "碧，", "11712": "绝句", "11713": "醉，", "11714": "，书", "11715": "，因", "11716": "，残", "11717": "，芳", "11718": "，见", "11719": "。\n平", "11720": "。\n幸", "11721": "。\n正", "11722": "。\n\n《再", "11723": "五灯会元》卷", "11724": "《诗", "11725": "何足", "11726": "俗，", "11727": "分。\n", "11728": "南北", "11729": "同一", "11730": "犹未", "11731": "长安", "11732": "露，", "11733": "，六", "11734": "，勿", "11735": "，却", "11736": "，意", "11737": "。\n花", "11738": "。\n露", "11739": "。\n\n《上", "11740": "。\n\n《中", "11741": "。\n（以上", "11742": "。\n（见同书卷", "11743": "三年", "11744": "不须", "11745": "二三", "11746": "仲并", "11747": "休。\n", "11748": "何时", "11749": "吟窗", "11750": "存。\n", "11751": "山川", "11752": "无人", "11753": "移。\n", "11754": "薄，", "11755": "面，", "11756": "，公", "11757": "，平", "11758": "，石", "11759": "，遥", "11760": "。\n仙", "11761": "。\n只", "11762": "。\n物", "11763": "》\n曾协\n", "11764": "一○", "11765": "三千", "11766": "十日", "11767": "十咏 ", "11768": "季仲", "11769": "往往", "11770": "水\n", "11771": "法，", "11772": "真。\n", "11773": "神。\n", "11774": "禅师", "11775": "葛立", "11776": "言。\n", "11777": "道人", "11778": "首，", "11779": "，华", "11780": "，欢", "11781": "，直", "11782": "，闲", "11783": "。\n别", "11784": "。\n勿", "11785": "。\n圣", "11786": "。\n念", "11787": "。\n梦", "11788": "仲并\n", "11789": "》。\n）。\n\n《", "11790": "不同", "11791": "径，", "11792": "桃花", "11793": "深，", "11794": "火，", "11795": "神仙", "11796": "自有", "11797": "西风", "11798": "青山", "11799": "，尚", "11800": "，遗", "11801": "：「", "11802": "。\n于", "11803": "。\n溪", "11804": "。\n胡为", "11805": "》\n无名氏\n", "11806": "。\n\n《咏", "11807": "，何必", "11808": "光庭\n", "11809": "正觉\n", "11810": "一百", "11811": "亦无", "11812": "华。\n", "11813": "名\n", "11814": "喜，", "11815": "四海", "11816": "帖子", "11817": "景，", "11818": "杂咏", "11819": "死，", "11820": "殊未", "11821": "汉，", "11822": "然，", "11823": "西山", "11824": "西湖", "11825": "诗。\n", "11826": "过，", "11827": "部》）。\n\n《", "11828": "，怀", "11829": "。\n两", "11830": "。\n临", "11831": "。\n北", "11832": "。\n又", "11833": "。\n后", "11834": "。\n竹", "11835": "。\n\n《初", "11836": "。\n\n《同", "11837": "。\n\n《拟", "11838": "。\n\n《次", "11839": "，不见", "11840": "，一笑", "11841": "吟窗杂", "11842": "不到", "11843": "关。\n", "11844": "学，", "11845": "密，", "11846": "屋，", "11847": "恨，", "11848": "田。\n", "11849": "病，", "11850": "白\n", "11851": "虚。\n", "11852": "辈，", "11853": "通。\n", "11854": "造物", "11855": "野，", "11856": "际，", "11857": "。\n少", "11858": "。\n年", "11859": "。\n真", "11860": "。\n霜", "11861": "。\n\n《杂曲歌辞 ", "11862": "。\n\n《诗（幷序） ", "11863": "季仲\n", "11864": "葛立方\n", "11865": "不堪", "11866": "刘子翚\n", "11867": "区区", "11868": "千万", "11869": "千古", "11870": "图二十", "11871": "天上", "11872": "守，", "11873": "故乡", "11874": "明，", "11875": "楼璹", "11876": "江上", "11877": "灯录》卷", "11878": "由来", "11879": "相，", "11880": "胜，", "11881": "高，", "11882": "，乃", "11883": "，乘", "11884": "，投", "11885": "。\n六", "11886": "。\n每", "11887": "。\n灵", "11888": "》\n楼璹", "11889": "。\n\n《晚", "11890": "。\n\n《郊", "11891": "，千载", "11892": "》\n楼璹\n", "11893": "《唐", "11894": "》引", "11895": "何如", "11896": "作，", "11897": "兴，", "11898": "定，", "11899": "寒，", "11900": "寺，", "11901": "岁晚", "11902": "平。\n", "11903": "极，", "11904": "津。\n", "11905": "红尘", "11906": "节物", "11907": "谁与", "11908": "非所", "11909": "，且", "11910": "，仍", "11911": "，只", "11912": "，地", "11913": "，道", "11914": "。\n下", "11915": "。\n同", "11916": "。\n田", "11917": "。\n知", "11918": "。\n近", "11919": "》\n道世\n", "11920": "。\n\n《三", "11921": "。\n\n《登", "11922": "，一一", "11923": "》\n释正觉\n", "11924": "》\n陈棣\n", "11925": "吟窗杂录》卷", "11926": "一日", "11927": "东西", "11928": "六首  其", "11929": "凄凉", "11930": "咫尺", "11931": "处处", "11932": "无穷", "11933": "春日", "11934": "观，", "11935": "阙，", "11936": "鸣。\n", "11937": "黄金", "11938": "，共", "11939": "，随", "11940": "。\n唯", "11941": "。\n感", "11942": "》\n孟", "11943": "。\n\n《奉", "11944": "，何以", "11945": "，万事", "11946": "。\n谁能", "11947": "》\n李若水\n", "11948": "七》\n释印肃\n", "11949": "不为", "11950": "了无", "11951": "以为", "11952": "偈 ", "11953": "员外", "11954": "宇宙", "11955": "室，", "11956": "将军", "11957": "州。\n", "11958": "忆昔", "11959": "想见", "11960": "春，", "11961": "林，", "11962": "求。\n", "11963": "江海", "11964": "潺湲", "11965": "知，", "11966": "祖堂", "11967": "纪胜", "11968": "趣，", "11969": "须臾", "11970": "，举", "11971": "，古", "11972": "，对", "11973": "，岩", "11974": "，惟", "11975": "，持", "11976": "，敢", "11977": "，离", "11978": "，细", "11979": "，经", "11980": "》\n范浚\n", "11981": "，千里", "11982": "。\n君看", "11983": "四首  其四", "11984": "。\n（同前）。\n\n《", "11985": "》，", "11986": "东山", "11987": "东。\n", "11988": "之，", "11989": "借问", "11990": "入，", "11991": "功。\n", "11992": "君子，", "11993": "图书", "11994": "太守", "11995": "掇英", "11996": "文字", "11997": "水。\n", "11998": "流，", "11999": "浮。\n", "12000": "用前", "12001": "闭门", "12002": "鲜。\n", "12003": "，丹", "12004": "，入", "12005": "。\n经", "12006": "。\n我欲", "12007": "。\n愿言", "12008": "一何", "12009": "丈夫", "12010": "不如", "12011": "人间", "12012": "余，", "12013": "修竹", "12014": "冥冥", "12015": "十里", "12016": "四首 ", "12017": "庐山", "12018": "忧。\n", "12019": "李石\n", "12020": "杖屦", "12021": "湖山", "12022": "疏。\n", "12023": "盛，", "12024": "秘监", "12025": "舆地", "12026": "艰难", "12027": "色。\n", "12028": "蓬莱", "12029": "赋诗", "12030": "阁，", "12031": "食，", "12032": "，两", "12033": "，回", "12034": "，阴", "12035": "。\n乃", "12036": "。\n众", "12037": "。\n佳", "12038": "。\n旧", "12039": "》\n员兴宗\n", "12040": "。\n\n《夜", "12041": "  其六", "12042": "  其二》\n王十朋\n", "12043": "会稽掇英", "12044": "会稽掇英总", "12045": "不胜", "12046": "世间", "12047": "今已", "12048": "台。\n", "12049": "园。\n", "12050": "堂。\n", "12051": "少，", "12052": "岂无", "12053": "崎岖", "12054": "庙歌辞 ", "12055": "思，", "12056": "新诗", "12057": "望，", "12058": "此一", "12059": "章 ", "12060": "绝，", "12061": "翁，", "12062": "臣。\n", "12063": "舍人", "12064": "菩提", "12065": "萧然", "12066": "车马", "12067": "须知", "12068": "，妙", "12069": "，徒", "12070": "，灵", "12071": "，翠", "12072": "。\n且", "12073": "。\n入", "12074": "。\n及", "12075": "。\n门", "12076": "。\n那知", "12077": "。\n\n《感", "12078": "。\n\n《王", "12079": "。\n\n《雨", "12080": "》卷四", "12081": "。\n故人", "12082": "》\n杜光庭\n", "12083": "。\n\n《郊庙歌辞 ", "12084": "舆地纪胜", "12085": "七首  其", "12086": "不容", "12087": "人不", "12088": "人生", "12089": "从此", "12090": "伤心", "12091": "倾。\n", "12092": "刺史", "12093": "化，", "12094": "四》\n释印肃\n", "12095": "处士", "12096": "大，", "12097": "天，", "12098": "方。\n", "12099": "村。\n", "12100": "浩荡", "12101": "熟，", "12102": "祜\n", "12103": "终不", "12104": "谷，", "12105": "贵，", "12106": "辰。\n", "12107": "远\n", "12108": "，浮", "12109": "，要", "12110": "，逢", "12111": "，难", "12112": "，雨", "12113": "。\n夫", "12114": "。\n试", "12115": "。\n诸", "12116": "。\n还", "12117": "一》\n释印肃\n", "12118": "。\n不见", "12119": "。\n\n《和陶", "12120": "  其一》\n王十朋\n", "12121": "，今日", "12122": "四首  其三", "12123": "会稽掇英总集》卷", "12124": "业，", "12125": "二首", "12126": "何许", "12127": "偈》\n", "12128": "光辉", "12129": "千里，", "12130": "句》\n", "12131": "壁，", "12132": "天涯", "12133": "如有", "12134": "山寺", "12135": "山居", "12136": "山林", "12137": "岸，", "12138": "归去", "12139": "慷慨", "12140": "户，", "12141": "无限", "12142": "林下", "12143": "沧海", "12144": "烟霞", "12145": "知有", "12146": "翩翩", "12147": "荣。\n", "12148": "衣冠", "12149": "词 ", "12150": "锦绣", "12151": "闻。\n", "12152": "阔，", "12153": "马上", "12154": "，感", "12155": "，那", "12156": "？（", "12157": "。\n兴", "12158": "。\n居", "12159": "。\n异", "12160": "。\n来", "12161": "。\n爱", "12162": "。\n穷", "12163": "。\n苍", "12164": "。\n\n《张", "12165": "。\n\n《闻", "12166": "。\n\n《九日", "12167": "》卷三", "12168": "二》\n释印肃\n", "12169": "。\n一朝", "12170": "，春风", "12171": "景德传灯录》卷", "12172": "一枝", "12173": "八》\n释印肃\n", "12174": "六》\n释印肃\n", "12175": "内，", "12176": "分韵", "12177": "十九", "12178": "千金", "12179": "叹息", "12180": "周麟", "12181": "圣贤", "12182": "夏日", "12183": "如何", "12184": "岁寒", "12185": "干戈", "12186": "暮，", "12187": "杯。\n", "12188": "沧浪", "12189": "白发", "12190": "白玉", "12191": "眠。\n", "12192": "稀。\n", "12193": "章。\n", "12194": "纪事", "12195": "绿，", "12196": "茫茫", "12197": "象，", "12198": "途中", "12199": "道颜", "12200": "青。\n", "12201": "，再", "12202": "，半", "12203": "，复", "12204": "，惊", "12205": "，愿", "12206": "，能", "12207": "。\n久", "12208": "。\n名", "12209": "。\n官", "12210": "。\n聊", "12211": "。\n雪", "12212": "》\n孙", "12213": "。\n\n《古", "12214": "，天地", "12215": "，无复", "12216": "，千古", "12217": "。\n相逢", "12218": "十八咏 ", "12219": "。\n\n《书院", "12220": "一时", "12221": "三》\n释印肃\n", "12222": "乱，", "12223": "亭亭", "12224": "何为", "12225": "到，", "12226": "变，", "12227": "天宇", "12228": "左右", "12229": "府，", "12230": "归来", "12231": "有佳", "12232": "有无", "12233": "海上", "12234": "湖上", "12235": "立，", "12236": "能几", "12237": "自然", "12238": "舟。\n", "12239": "船。\n", "12240": "衣。\n\n《", "12241": "身，", "12242": "，满", "12243": "，酒", "12244": "。\n似", "12245": "。\n而", "12246": "。\n良", "12247": "。\n不如", "12248": "  其二》\n宋祁\n", "12249": "。\n\n《秋怀", "12250": "。\n\n《秋日", "12251": "。\n安得", "12252": "。\n可怜", "12253": "周麟之\n", "12254": "一杯", "12255": "三日", "12256": "不复", "12257": "之子", "12258": "之。\n", "12259": "乐章 ", "12260": "作者", "12261": "八月", "12262": "千山", "12263": "千峰", "12264": "名，", "12265": "吾庐", "12266": "和气", "12267": "尔，", "12268": "张元干\n", "12269": "文苑", "12270": "斜。\n", "12271": "日已", "12272": "是非", "12273": "朅来", "12274": "洞庭", "12275": "清夜", "12276": "登高", "12277": "目，", "12278": "秋怀", "12279": "策，", "12280": "置酒", "12281": "胡寅\n", "12282": "著鞭", "12283": "西园", "12284": "路。\n", "12285": "郎中", "12286": "陈。\n", "12287": "颜。\n", "12288": "香，", "12289": "，众", "12290": "，客", "12291": "，居", "12292": "，恩", "12293": "，才", "12294": "，穷", "12295": "，飘", "12296": "。\n书", "12297": "。\n壮", "12298": "。\n妙", "12299": "。\n对", "12300": "。\n岩", "12301": "。\n早", "12302": "。\n气", "12303": "。\n永", "12304": "。\n醉", "12305": "。\n主人", "12306": "。\n\n《哭", "12307": " 其七》\n释印肃\n", "12308": "。\n何如", "12309": "，清风", "12310": "。\n此时", "12311": "  其一》\n宋祁\n", "12312": "。\n（见《吟窗杂录》卷", "12313": "。\n明朝", "12314": "。\n春风", "12315": "，四海", "12316": "二首  其一》\n宋祁\n", "12317": "二首  其二》\n宋祁\n", "12318": "。\n\n《书院杂咏 ", "12319": "不受", "12320": "今古", "12321": "儿女", "12322": "参政", "12323": "可怜", "12324": "命，", "12325": "响，", "12326": "均见《", "12327": "安。\n", "12328": "实，", "12329": "山》\n", "12330": "州宅", "12331": "归。\n\n《", "12332": "斯文", "12333": "明主", "12334": "未能", "12335": "泉石", "12336": "泉，", "12337": "流水", "12338": "牡丹", "12339": "相逢", "12340": "秋，", "12341": "缘。\n", "12342": "翰墨", "12343": "苍苍", "12344": "草堂", "12345": "落花", "12346": "轩冕", "12347": "金石", "12348": "黄。\n", "12349": "（项", "12350": "，事", "12351": "，似", "12352": "，佳", "12353": "，几", "12354": "，晴", "12355": "，梦", "12356": "，竹", "12357": "。\n先", "12358": "。\n凭", "12359": "。\n始", "12360": "。\n手", "12361": "。\n晓", "12362": "。\n直", "12363": "。\n问", "12364": "。\n\n《喜", "12365": "。\n\n《早", "12366": "。\n\n《答", "12367": "。\n\n《五言", "12368": " 其八》\n释印肃\n", "12369": " 其六》\n释印肃\n", "12370": "》卷一", "12371": "，此意", "12372": "。\n谁知", "12373": "。\n岂无", "12374": "。\n行行", "12375": "》\n林季仲\n", "12376": "。\n\n《拟古", "12377": "1〗", "12378": "」字", "12379": "〖1〗", "12380": "三百", "12381": "不及", "12382": "中兴", "12383": "久不", "12384": "乐 ", "12385": "五》\n释印肃\n", "12386": "今夕", "12387": "以诗", "12388": "何处，", "12389": "作《", "12390": "儿，", "12391": "和尚", "12392": "寂寥", "12393": "尽日", "12394": "岂不", "12395": "度，", "12396": "弦。\n", "12397": "怀古", "12398": "散，", "12399": "有一", "12400": "校「", "12401": "步，", "12402": "淹留", "12403": "窈窕", "12404": "罢，", "12405": "芳。\n", "12406": "若为", "12407": "英华", "12408": "识，", "12409": "谈笑", "12410": "车。\n", "12411": "陈棣\n", "12412": "题诗", "12413": "，又", "12414": "，双", "12415": "，志", "12416": "，斜", "12417": "，爱", "12418": "，至", "12419": "。\n偶", "12420": "。\n傥", "12421": "。\n持", "12422": "。\n晨", "12423": "。\n树", "12424": "。\n细", "12425": "。\n至", "12426": "。\n饮", "12427": "。\n鱼", "12428": "。\n\n《大", "12429": "。\n\n《雪", "12430": " 其四》\n释印肃\n", "12431": " 其一》\n释印肃\n", "12432": " 其二》\n释印肃\n", "12433": "  其七", "12434": "》\n释道颜", "12435": "》\n张祜\n", "12436": "，风雨", "12437": "，无乃", "12438": "。\n\n《送王", "12439": "。\n今日", "12440": "，终日", "12441": "部》）。\n\n《颂六十二首 ", "12442": "》本", "12443": "不肯", "12444": "东风", "12445": "依依", "12446": "倾盖", "12447": "冰雪", "12448": "初。\n", "12449": "千年", "12450": "参差", "12451": "名利", "12452": "圣主", "12453": "大典", "12454": "奈何", "12455": "岭，", "12456": "师，", "12457": "幽独", "12458": "怀抱", "12459": "收。\n", "12460": "日夜", "12461": "早，", "12462": "柴门", "12463": "江山", "12464": "法身", "12465": "清明", "12466": "满，", "12467": "知音", "12468": "美，", "12469": "聊自", "12470": "英。\n", "12471": "萧条", "12472": "薄暮", "12473": "西南", "12474": "贯\n", "12475": "迁。\n", "12476": "释慧", "12477": "险，", "12478": "隠，", "12479": "霜。\n", "12480": "青云", "12481": "，嘉", "12482": "，尘", "12483": "，王", "12484": "，秀", "12485": "，遂", "12486": "。\n」", "12487": "。\n丹", "12488": "。\n以", "12489": "。\n便", "12490": "。\n共", "12491": "。\n再", "12492": "。\n惊", "12493": "。\n柳", "12494": "。\n虚", "12495": "。\n阴", "12496": "。\n\n《谢", "12497": " 其三》\n释印肃\n", "12498": "，一洗", "12499": "。\n今年", "12500": "（《灯录", "12501": "。\n\n《寄题", "12502": "》\n孟贯\n", "12503": " 二》\n", "12504": "三五", "12505": "不我", "12506": "九《", "12507": "儿童", "12508": "光，", "12509": "六祖", "12510": "冉冉", "12511": "冷，", "12512": "努力", "12513": "北，", "12514": "味，", "12515": "回波", "12516": "大江", "12517": "宏\n", "12518": "寒暑", "12519": "峰，", "12520": "庶几", "12521": "心无", "12522": "怀，", "12523": "把酒", "12524": "无定", "12525": "日本", "12526": "时一", "12527": "柳，", "12528": "泽，", "12529": "照，", "12530": "父子", "12531": "知几", "12532": "种，", "12533": "端午", "12534": "缥缈", "12535": "耿耿", "12536": "良不", "12537": "赏，", "12538": "重阳", "12539": "雾，", "12540": "颂》\n", "12541": "飞，", "12542": "，危", "12543": "，忧", "12544": "，物", "12545": "，留", "12546": "，积", "12547": "，良", "12548": "。\n几", "12549": "。\n危", "12550": "。\n宝", "12551": "。\n彼", "12552": "。\n思", "12553": "。\n登", "12554": "。\n眼", "12555": "。\n红", "12556": "。\n草", "12557": "。\n落", "12558": "。\n请", "12559": "。\n路", "12560": "。\n轻", "12561": "。\n至今", "12562": "》\n吴", "12563": "》\n庞", "12564": "》\n许", "12565": "》\n葛立方\n", "12566": "。\n\n《东", "12567": "。\n\n《又", "12568": " 其五》\n释印肃\n", "12569": "  其八", "12570": "。\n山川", "12571": "。\n\n《次韵张", "12572": "。\n清风", "12573": "，中有", "12574": "。\n（同前卷", "12575": "）（按：《全唐诗》卷", "12576": "。\n所以", "12577": "。\n朝来", "12578": "》\n林宪\n", "12579": "。\n他年", "12580": "祖堂集》卷", "12581": "用前韵", "12582": "文苑英华", "12583": "》一", "12584": "一笑", "12585": "七十", "12586": "为我", "12587": "久已", "12588": "九月", "12589": "五字", "12590": "亦不", "12591": "使我", "12592": "前，", "12593": "图。\n", "12594": "城南", "12595": "家，", "12596": "居，", "12597": "干。\n", "12598": "幽栖", "12599": "归田", "12600": "惊。\n", "12601": "收此诗", "12602": "故园", "12603": "故山", "12604": "晓，", "12605": "梦中", "12606": "步虚", "12607": "永乐", "12608": "洛阳", "12609": "浩然", "12610": "溪上", "12611": "潇湘", "12612": "白日", "12613": "相公", "12614": "空，", "12615": "终日", "12616": "芳草", "12617": "萧瑟", "12618": "衣，", "12619": "衰。\n", "12620": "谁能", "12621": "豫章", "12622": "里。\n", "12623": "饮，", "12624": "，后", "12625": "，常", "12626": "，庭", "12627": "，曾", "12628": "，野", "12629": "，雪", "12630": "，静", "12631": "，草木", "12632": "。\n分", "12633": "。\n浮", "12634": "。\n看", "12635": "。\n稍", "12636": "。\n闻", "12637": "》\n姚", "12638": "。\n\n《小", "12639": "。\n\n《观", "12640": "首  其一", "12641": "二十九", "12642": "。\n\n《金刚随机无尽颂 无", "12643": "，日月", "12644": "四首  其二》\n", "12645": "。\n当时", "12646": "》\n邓肃\n", "12647": "分韵得", "12648": "》\n释道颜\n", "12649": "回波乐 ", "12650": "一首 ", "12651": "三月", "12652": "不待", "12653": "不忍", "12654": "中原", "12655": "令我", "12656": "何由", "12657": "十月", "12658": "去年", "12659": "周旋", "12660": "夜雨", "12661": "大道", "12662": "子孙", "12663": "岁，", "12664": "年华", "12665": "开，", "12666": "异，", "12667": "往，", "12668": "心自", "12669": "慎勿", "12670": "无事，", "12671": "樵\n", "12672": "清，", "12673": "白头", "12674": "百忧", "12675": "绩\n", "12676": "翠微", "12677": "舟中", "12678": "荆棘", "12679": "营。\n", "12680": "诗话", "12681": "贺秘监", "12682": "还乡", "12683": "连。\n", "12684": "适，", "12685": "问，", "12686": "闲居", "12687": "雁，", "12688": "颜色", "12689": "首 其", "12690": "，上", "12691": "，冰", "12692": "，英", "12693": "，言", "12694": "，连", "12695": "，醉", "12696": "，鱼", "12697": "。\n佛", "12698": "。\n学", "12699": "。\n常", "12700": "。\n意", "12701": "。\n荒", "12702": "。\n起", "12703": "。\n静", "12704": "  其九", "12705": "。\n我亦", "12706": "四首  其一》\n", "12707": "、《五灯会元》卷", "12708": "永乐大典", "12709": "」。\n）", "12710": "万卷", "12711": "不用", "12712": "与世", "12713": "中书", "12714": "为谁", "12715": "令人", "12716": "侵。\n", "12717": "匆匆", "12718": "华\n", "12719": "友人", "12720": "君，", "12721": "女，", "12722": "如是", "12723": "宅，", "12724": "寂寂", "12725": "寐，", "12726": "尧舜", "12727": "席，", "12728": "幽。\n", "12729": "张改", "12730": "影印", "12731": "忘。\n", "12732": "文章", "12733": "未易", "12734": "本是", "12735": "林间", "12736": "此，", "12737": "泉声", "12738": "泛舟", "12739": "波，", "12740": "浪，", "12741": "海棠", "12742": "湖海", "12743": "相望", "12744": "缅怀", "12745": "舍，", "12746": "花开", "12747": "行乐", "12748": "衣裳", "12749": "送贺秘监", "12750": "道路", "12751": "避地", "12752": "重录", "12753": "非吾", "12754": "骨，", "12755": "鱼。\n", "12756": "，交", "12757": "，兹", "12758": "，星", "12759": "，永", "12760": "，笔", "12761": "，结", "12762": "，诸", "12763": "。\n乘", "12764": "。\n定", "12765": "。\n汉", "12766": "。\n离", "12767": "。\n见", "12768": "。\n非", "12769": "。\n先生", "12770": "。\n功名", "12771": "。\n\n《出", "12772": "。\n\n《州宅", "12773": "》\n王绩\n", "12774": "，不得", "12775": "一》\n不详\n", "12776": "，未免", "12777": "。\n人间", "12778": "。\n有时", "12779": "。\n今朝", "12780": "。\n虽无", "12781": "万里，", "12782": "不识", "12783": "五十", "12784": "亦有", "12785": "他年", "12786": "低。\n", "12787": "公挽诗", "12788": "公挽词", "12789": "凛凛", "12790": "喧。\n", "12791": "城，", "12792": "声，", "12793": "夕，", "12794": "夫子，", "12795": "奔走", "12796": "宜。\n", "12797": "宽。\n", "12798": "寥寥", "12799": "寥廓", "12800": "山河", "12801": "岩壑", "12802": "廊庙", "12803": "归会稽", "12804": "招提", "12805": "春色", "12806": "朱松\n", "12807": "杖藜", "12808": "来无", "12809": "水云", "12810": "炜\n", "12811": "犹可", "12812": "生死", "12813": "真可", "12814": "笑语", "12815": "符。\n"}